unsigned char model_8x16x6_h5_tflite[] = {
  0x1c, 0x00, 0x00, 0x00, 0x54, 0x46, 0x4c, 0x33, 0x14, 0x00, 0x20, 0x00,
  0x04, 0x00, 0x08, 0x00, 0x0c, 0x00, 0x10, 0x00, 0x14, 0x00, 0x00, 0x00,
  0x18, 0x00, 0x1c, 0x00, 0x14, 0x00, 0x00, 0x00, 0x03, 0x00, 0x00, 0x00,
  0x18, 0x00, 0x00, 0x00, 0x34, 0x00, 0x00, 0x00, 0x20, 0x01, 0x00, 0x00,
  0x34, 0x00, 0x00, 0x00, 0xc8, 0x00, 0x00, 0x00, 0xc0, 0x00, 0x00, 0x00,
  0x07, 0x00, 0x00, 0x00, 0xdc, 0x0d, 0x00, 0x00, 0xe4, 0x0c, 0x00, 0x00,
  0x18, 0x0c, 0x00, 0x00, 0x58, 0x0b, 0x00, 0x00, 0x4c, 0x04, 0x00, 0x00,
  0x7c, 0x03, 0x00, 0x00, 0x3c, 0x02, 0x00, 0x00, 0x01, 0x00, 0x00, 0x00,
  0x10, 0x01, 0x00, 0x00, 0x24, 0x00, 0x00, 0x00, 0x48, 0x01, 0x06, 0x00,
  0x44, 0x01, 0x06, 0x00, 0xb8, 0xff, 0x05, 0x00, 0x50, 0xfe, 0x05, 0x00,
  0x04, 0xfc, 0x05, 0x00, 0x18, 0xfb, 0x05, 0x00, 0xa4, 0xfa, 0x05, 0x00,
  0x34, 0xfa, 0x05, 0x00, 0x2c, 0xf9, 0x05, 0x00, 0x20, 0xf8, 0x05, 0x00,
  0xc8, 0xf6, 0x05, 0x00, 0x6c, 0xf5, 0x05, 0x00, 0x24, 0xf3, 0x05, 0x00,
  0xd8, 0xf0, 0x05, 0x00, 0x84, 0x78, 0x05, 0x00, 0x30, 0x77, 0x05, 0x00,
  0x10, 0x55, 0x05, 0x00, 0x30, 0x03, 0x04, 0x00, 0x50, 0x0e, 0x00, 0x00,
  0xfc, 0x00, 0x06, 0x00, 0xf8, 0x00, 0x06, 0x00, 0xf4, 0x00, 0x06, 0x00,
  0xf0, 0x00, 0x06, 0x00, 0xec, 0x00, 0x06, 0x00, 0xe8, 0x00, 0x06, 0x00,
  0xe4, 0x00, 0x06, 0x00, 0xe0, 0x00, 0x06, 0x00, 0xdc, 0x00, 0x06, 0x00,
  0xd8, 0x00, 0x06, 0x00, 0xd4, 0x00, 0x06, 0x00, 0xd0, 0x00, 0x06, 0x00,
  0xcc, 0x00, 0x06, 0x00, 0xc8, 0x00, 0x06, 0x00, 0xc4, 0x00, 0x06, 0x00,
  0xc0, 0x00, 0x06, 0x00, 0x3c, 0x00, 0x00, 0x00, 0x00, 0x00, 0x00, 0x00,
  0x01, 0x00, 0x00, 0x00, 0x0c, 0x00, 0x00, 0x00, 0x08, 0x00, 0x0c, 0x00,
  0x04, 0x00, 0x08, 0x00, 0x08, 0x00, 0x00, 0x00, 0x08, 0x00, 0x00, 0x00,
  0x23, 0x00, 0x00, 0x00, 0x13, 0x00, 0x00, 0x00, 0x6d, 0x69, 0x6e, 0x5f,
  0x72, 0x75, 0x6e, 0x74, 0x69, 0x6d, 0x65, 0x5f, 0x76, 0x65, 0x72, 0x73,
  0x69, 0x6f, 0x6e, 0x00, 0x0e, 0x01, 0xfa, 0xff, 0x04, 0x00, 0x00, 0x00,
  0x10, 0x00, 0x00, 0x00, 0x31, 0x2e, 0x31, 0x34, 0x2e, 0x30, 0x00, 0x00,
  0x00, 0x00, 0x00, 0x00, 0x00, 0x00, 0x00, 0x00, 0x0f, 0x00, 0x00, 0x00,
  0x4d, 0x4c, 0x49, 0x52, 0x20, 0x43, 0x6f, 0x6e, 0x76, 0x65, 0x72, 0x74,
  0x65, 0x64, 0x2e, 0x00, 0x00, 0x00, 0x0e, 0x00, 0x18, 0x00, 0x04, 0x00,
  0x08, 0x00, 0x0c, 0x00, 0x10, 0x00, 0x14, 0x00, 0x0e, 0x00, 0x00, 0x00,
  0x14, 0x00, 0x00, 0x00, 0x9c, 0x00, 0x00, 0x00, 0xa0, 0x00, 0x00, 0x00,
  0xa4, 0x00, 0x00, 0x00, 0xe4, 0x00, 0x00, 0x00, 0x22, 0x00, 0x00, 0x00,
  0xc8, 0xff, 0x05, 0x00, 0x54, 0xff, 0x05, 0x00, 0x2c, 0xfe, 0x05, 0x00,
  0xd0, 0xfc, 0x05, 0x00, 0x84, 0xfa, 0x05, 0x00, 0x98, 0xf9, 0x05, 0x00,
  0x38, 0xf9, 0x05, 0x00, 0xb8, 0xf8, 0x05, 0x00, 0xac, 0xf7, 0x05, 0x00,
  0xa4, 0xf6, 0x05, 0x00, 0x48, 0xf5, 0x05, 0x00, 0xf0, 0xf3, 0x05, 0x00,
  0xa4, 0xf1, 0x05, 0x00, 0x70, 0xef, 0x05, 0x00, 0x1c, 0x77, 0x05, 0x00,
  0xbc, 0x75, 0x05, 0x00, 0x9c, 0x53, 0x05, 0x00, 0xbc, 0x01, 0x04, 0x00,
  0x58, 0x0c, 0x00, 0x00, 0x60, 0x0b, 0x00, 0x00, 0x8c, 0x0a, 0x00, 0x00,
  0xd4, 0x09, 0x00, 0x00, 0x8c, 0x08, 0x00, 0x00, 0xcc, 0x07, 0x00, 0x00,
  0x18, 0x07, 0x00, 0x00, 0x74, 0x06, 0x00, 0x00, 0x5c, 0x05, 0x00, 0x00,
  0x9c, 0x04, 0x00, 0x00, 0xe8, 0x03, 0x00, 0x00, 0x44, 0x03, 0x00, 0x00,
  0xa8, 0x02, 0x00, 0x00, 0xd8, 0x01, 0x00, 0x00, 0x10, 0x01, 0x00, 0x00,
  0x94, 0x00, 0x00, 0x00, 0x01, 0x00, 0x00, 0x00, 0x00, 0x00, 0x00, 0x00,
  0x01, 0x00, 0x00, 0x00, 0x21, 0x00, 0x00, 0x00, 0x10, 0x00, 0x00, 0x00,
  0xa0, 0x0b, 0x00, 0x00, 0xcc, 0x0a, 0x00, 0x00, 0xf4, 0x09, 0x00, 0x00,
  0x20, 0x09, 0x00, 0x00, 0xfc, 0x07, 0x00, 0x00, 0x48, 0x07, 0x00, 0x00,
  0x94, 0x06, 0x00, 0x00, 0xe0, 0x05, 0x00, 0x00, 0xcc, 0x04, 0x00, 0x00,
  0x18, 0x04, 0x00, 0x00, 0x64, 0x03, 0x00, 0x00, 0xb0, 0x02, 0x00, 0x00,
  0x20, 0x02, 0x00, 0x00, 0x34, 0x01, 0x00, 0x00, 0x88, 0x00, 0x00, 0x00,
  0x10, 0x00, 0x00, 0x00, 0x04, 0x00, 0x00, 0x00, 0x6d, 0x61, 0x69, 0x6e,
  0x00, 0x00, 0x00, 0x00, 0x06, 0xfe, 0xff, 0xff, 0x06, 0x00, 0x00, 0x00,
  0x10, 0x00, 0x00, 0x00, 0x04, 0x00, 0x00, 0x00, 0x01, 0x00, 0x00, 0x00,
  0x21, 0x00, 0x00, 0x00, 0x01, 0x00, 0x00, 0x00, 0x20, 0x00, 0x00, 0x00,
  0x84, 0xf4, 0xff, 0xff, 0x0e, 0x00, 0x00, 0x00, 0x00, 0x00, 0x00, 0x0e,
  0x01, 0x00, 0x00, 0x00, 0x64, 0x01, 0xfa, 0xff, 0x14, 0x00, 0x00, 0x00,
  0x22, 0x00, 0x00, 0x00, 0x18, 0x00, 0x00, 0x00, 0x30, 0x00, 0x00, 0x00,
  0x20, 0x00, 0x00, 0x00, 0x02, 0x00, 0x00, 0x00, 0x01, 0x00, 0x00, 0x00,
  0x02, 0x00, 0x00, 0x00, 0x08, 0x00, 0x00, 0x00, 0x49, 0x64, 0x65, 0x6e,
  0x74, 0x69, 0x74, 0x79, 0x00, 0x00, 0x00, 0x00, 0x02, 0x00, 0x00, 0x00,
  0xff, 0xff, 0xff, 0xff, 0x02, 0x00, 0x00, 0x00, 0x38, 0x01, 0xfa, 0xff,
  0xfe, 0xf5, 0xff, 0xff, 0x00, 0x00, 0x00, 0x08, 0x05, 0x00, 0x00, 0x00,
  0x18, 0x00, 0x00, 0x00, 0x0c, 0x00, 0x00, 0x00, 0x04, 0x00, 0x00, 0x00,
  0x54, 0x01, 0xfa, 0xff, 0x01, 0x00, 0x00, 0x00, 0x20, 0x00, 0x00, 0x00,
  0x03, 0x00, 0x00, 0x00, 0x1f, 0x00, 0x00, 0x00, 0x0e, 0x00, 0x00, 0x00,
  0x05, 0x00, 0x00, 0x00, 0xdc, 0x01, 0xfa, 0xff, 0x14, 0x00, 0x00, 0x00,
  0x21, 0x00, 0x00, 0x00, 0x18, 0x00, 0x00, 0x00, 0x60, 0x00, 0x00, 0x00,
  0x50, 0x00, 0x00, 0x00, 0x02, 0x00, 0x00, 0x00, 0x01, 0x00, 0x00, 0x00,
  0x02, 0x00, 0x00, 0x00, 0x38, 0x00, 0x00, 0x00, 0x73, 0x65, 0x71, 0x75,
  0x65, 0x6e, 0x74, 0x69, 0x61, 0x6c, 0x5f, 0x31, 0x2f, 0x64, 0x65, 0x6e,
  0x73, 0x65, 0x5f, 0x33, 0x2f, 0x4d, 0x61, 0x74, 0x4d, 0x75, 0x6c, 0x3b,
  0x73, 0x65, 0x71, 0x75, 0x65, 0x6e, 0x74, 0x69, 0x61, 0x6c, 0x5f, 0x31,
  0x2f, 0x64, 0x65, 0x6e, 0x73, 0x65, 0x5f, 0x33, 0x2f, 0x42, 0x69, 0x61,
  0x73, 0x41, 0x64, 0x64, 0x00, 0x00, 0x00, 0x00, 0x02, 0x00, 0x00, 0x00,
  0xff, 0xff, 0xff, 0xff, 0x02, 0x00, 0x00, 0x00, 0xe0, 0x01, 0xfa, 0xff,
  0x4a, 0xf8, 0xff, 0xff, 0x00, 0x00, 0x00, 0x08, 0x05, 0x00, 0x00, 0x00,
  0x24, 0x00, 0x00, 0x00, 0x18, 0x00, 0x00, 0x00, 0x0c, 0x00, 0x00, 0x00,
  0x00, 0x00, 0x06, 0x00, 0x08, 0x00, 0x07, 0x00, 0x06, 0x00, 0x00, 0x00,
  0x00, 0x00, 0x00, 0x01, 0x01, 0x00, 0x00, 0x00, 0x1f, 0x00, 0x00, 0x00,
  0x03, 0x00, 0x00, 0x00, 0x1e, 0x00, 0x00, 0x00, 0x0d, 0x00, 0x00, 0x00,
  0x04, 0x00, 0x00, 0x00, 0xc0, 0xf5, 0xff, 0xff, 0x09, 0x00, 0x00, 0x00,
  0x00, 0x00, 0x00, 0x09, 0x01, 0x00, 0x00, 0x00, 0xa0, 0x02, 0xfa, 0xff,
  0x14, 0x00, 0x00, 0x00, 0x20, 0x00, 0x00, 0x00, 0x18, 0x00, 0x00, 0x00,
  0x78, 0x00, 0x00, 0x00, 0x68, 0x00, 0x00, 0x00, 0x02, 0x00, 0x00, 0x00,
  0x01, 0x00, 0x00, 0x00, 0x20, 0x00, 0x00, 0x00, 0x52, 0x00, 0x00, 0x00,
  0x73, 0x65, 0x71, 0x75, 0x65, 0x6e, 0x74, 0x69, 0x61, 0x6c, 0x5f, 0x31,
  0x2f, 0x64, 0x65, 0x6e, 0x73, 0x65, 0x5f, 0x32, 0x2f, 0x4d, 0x61, 0x74,
  0x4d, 0x75, 0x6c, 0x3b, 0x73, 0x65, 0x71, 0x75, 0x65, 0x6e, 0x74, 0x69,
  0x61, 0x6c, 0x5f, 0x31, 0x2f, 0x64, 0x65, 0x6e, 0x73, 0x65, 0x5f, 0x32,
  0x2f, 0x52, 0x65, 0x6c, 0x75, 0x3b, 0x73, 0x65, 0x71, 0x75, 0x65, 0x6e,
  0x74, 0x69, 0x61, 0x6c, 0x5f, 0x31, 0x2f, 0x64, 0x65, 0x6e, 0x73, 0x65,
  0x5f, 0x32, 0x2f, 0x42, 0x69, 0x61, 0x73, 0x41, 0x64, 0x64, 0x00, 0x00,
  0x02, 0x00, 0x00, 0x00, 0xff, 0xff, 0xff, 0xff, 0x20, 0x00, 0x00, 0x00,
  0x50, 0x04, 0xfa, 0xff, 0x00, 0x00, 0x0a, 0x00, 0x10, 0x00, 0x04, 0x00,
  0x08, 0x00, 0x0c, 0x00, 0x0a, 0x00, 0x00, 0x00, 0x04, 0x00, 0x00, 0x00,
  0x10, 0x00, 0x00, 0x00, 0x04, 0x00, 0x00, 0x00, 0x01, 0x00, 0x00, 0x00,
  0x1e, 0x00, 0x00, 0x00, 0x02, 0x00, 0x00, 0x00, 0x1d, 0x00, 0x00, 0x00,
  0x06, 0x00, 0x00, 0x00, 0x8c, 0xf6, 0xff, 0xff, 0x16, 0x00, 0x00, 0x00,
  0x00, 0x00, 0x00, 0x16, 0x01, 0x00, 0x00, 0x00, 0x6c, 0x03, 0xfa, 0xff,
  0x14, 0x00, 0x00, 0x00, 0x1f, 0x00, 0x00, 0x00, 0x18, 0x00, 0x00, 0x00,
  0x44, 0x00, 0x00, 0x00, 0x34, 0x00, 0x00, 0x00, 0x02, 0x00, 0x00, 0x00,
  0x01, 0x00, 0x00, 0x00, 0xf0, 0x00, 0x00, 0x00, 0x1e, 0x00, 0x00, 0x00,
  0x73, 0x65, 0x71, 0x75, 0x65, 0x6e, 0x74, 0x69, 0x61, 0x6c, 0x5f, 0x31,
  0x2f, 0x66, 0x6c, 0x61, 0x74, 0x74, 0x65, 0x6e, 0x5f, 0x31, 0x2f, 0x52,
  0x65, 0x73, 0x68, 0x61, 0x70, 0x65, 0x00, 0x00, 0x02, 0x00, 0x00, 0x00,
  0xff, 0xff, 0xff, 0xff, 0xf0, 0x00, 0x00, 0x00, 0x54, 0x03, 0xfa, 0xff,
  0x1a, 0xf8, 0xff, 0xff, 0x00, 0x00, 0x00, 0x05, 0x03, 0x00, 0x00, 0x00,
  0x2c, 0x00, 0x00, 0x00, 0x20, 0x00, 0x00, 0x00, 0x04, 0x00, 0x00, 0x00,
  0xae, 0xf9, 0xff, 0xff, 0x02, 0x00, 0x00, 0x00, 0x02, 0x00, 0x00, 0x00,
  0x02, 0x00, 0x00, 0x00, 0x02, 0x00, 0x00, 0x00, 0x00, 0x00, 0x00, 0x01,
  0x01, 0x00, 0x00, 0x00, 0x1d, 0x00, 0x00, 0x00, 0x01, 0x00, 0x00, 0x00,
  0x1c, 0x00, 0x00, 0x00, 0x04, 0x04, 0xfa, 0xff, 0x14, 0x00, 0x00, 0x00,
  0x1e, 0x00, 0x00, 0x00, 0x20, 0x00, 0x00, 0x00, 0x5c, 0x00, 0x00, 0x00,
  0x44, 0x00, 0x00, 0x00, 0x04, 0x00, 0x00, 0x00, 0x01, 0x00, 0x00, 0x00,
  0x01, 0x00, 0x00, 0x00, 0x02, 0x00, 0x00, 0x00, 0x78, 0x00, 0x00, 0x00,
  0x24, 0x00, 0x00, 0x00, 0x73, 0x65, 0x71, 0x75, 0x65, 0x6e, 0x74, 0x69,
  0x61, 0x6c, 0x5f, 0x31, 0x2f, 0x6d, 0x61, 0x78, 0x5f, 0x70, 0x6f, 0x6f,
  0x6c, 0x69, 0x6e, 0x67, 0x32, 0x64, 0x5f, 0x35, 0x2f, 0x4d, 0x61, 0x78,
  0x50, 0x6f, 0x6f, 0x6c, 0x00, 0x00, 0x00, 0x00, 0x04, 0x00, 0x00, 0x00,
  0xff, 0xff, 0xff, 0xff, 0x01, 0x00, 0x00, 0x00, 0x02, 0x00, 0x00, 0x00,
  0x78, 0x00, 0x00, 0x00, 0x04, 0x04, 0xfa, 0xff, 0xca, 0xf8, 0xff, 0xff,
  0x00, 0x00, 0x00, 0x0b, 0x02, 0x00, 0x00, 0x00, 0x18, 0x00, 0x00, 0x00,
  0x0c, 0x00, 0x00, 0x00, 0x04, 0x00, 0x00, 0x00, 0x20, 0x04, 0xfa, 0xff,
  0x01, 0x00, 0x00, 0x00, 0x1c, 0x00, 0x00, 0x00, 0x02, 0x00, 0x00, 0x00,
  0x1b, 0x00, 0x00, 0x00, 0x0b, 0x00, 0x00, 0x00, 0xa4, 0x04, 0xfa, 0xff,
  0x14, 0x00, 0x00, 0x00, 0x1d, 0x00, 0x00, 0x00, 0x20, 0x00, 0x00, 0x00,
  0x6c, 0x00, 0x00, 0x00, 0x54, 0x00, 0x00, 0x00, 0x04, 0x00, 0x00, 0x00,
  0x01, 0x00, 0x00, 0x00, 0x02, 0x00, 0x00, 0x00, 0x04, 0x00, 0x00, 0x00,
  0x78, 0x00, 0x00, 0x00, 0x34, 0x00, 0x00, 0x00, 0x73, 0x65, 0x71, 0x75,
  0x65, 0x6e, 0x74, 0x69, 0x61, 0x6c, 0x5f, 0x31, 0x2f, 0x62, 0x61, 0x74,
  0x63, 0x68, 0x5f, 0x6e, 0x6f, 0x72, 0x6d, 0x61, 0x6c, 0x69, 0x7a, 0x61,
  0x74, 0x69, 0x6f, 0x6e, 0x5f, 0x35, 0x2f, 0x46, 0x75, 0x73, 0x65, 0x64,
  0x42, 0x61, 0x74, 0x63, 0x68, 0x4e, 0x6f, 0x72, 0x6d, 0x56, 0x33, 0x33,
  0x00, 0x00, 0x00, 0x00, 0x04, 0x00, 0x00, 0x00, 0xff, 0xff, 0xff, 0xff,
  0x02, 0x00, 0x00, 0x00, 0x04, 0x00, 0x00, 0x00, 0x78, 0x00, 0x00, 0x00,
  0xb4, 0x04, 0xfa, 0xff, 0x7a, 0xf9, 0xff, 0xff, 0x00, 0x00, 0x00, 0x15,
  0x01, 0x00, 0x00, 0x00, 0x18, 0x00, 0x00, 0x00, 0x0c, 0x00, 0x00, 0x00,
  0x04, 0x00, 0x00, 0x00, 0xd0, 0x04, 0xfa, 0xff, 0x01, 0x00, 0x00, 0x00,
  0x1b, 0x00, 0x00, 0x00, 0x02, 0x00, 0x00, 0x00, 0x1a, 0x00, 0x00, 0x00,
  0x0c, 0x00, 0x00, 0x00, 0x54, 0x05, 0xfa, 0xff, 0x14, 0x00, 0x00, 0x00,
  0x1c, 0x00, 0x00, 0x00, 0x20, 0x00, 0x00, 0x00, 0x6c, 0x00, 0x00, 0x00,
  0x54, 0x00, 0x00, 0x00, 0x04, 0x00, 0x00, 0x00, 0x01, 0x00, 0x00, 0x00,
  0x02, 0x00, 0x00, 0x00, 0x04, 0x00, 0x00, 0x00, 0x78, 0x00, 0x00, 0x00,
  0x34, 0x00, 0x00, 0x00, 0x73, 0x65, 0x71, 0x75, 0x65, 0x6e, 0x74, 0x69,
  0x61, 0x6c, 0x5f, 0x31, 0x2f, 0x62, 0x61, 0x74, 0x63, 0x68, 0x5f, 0x6e,
  0x6f, 0x72, 0x6d, 0x61, 0x6c, 0x69, 0x7a, 0x61, 0x74, 0x69, 0x6f, 0x6e,
  0x5f, 0x35, 0x2f, 0x46, 0x75, 0x73, 0x65, 0x64, 0x42, 0x61, 0x74, 0x63,
  0x68, 0x4e, 0x6f, 0x72, 0x6d, 0x56, 0x33, 0x32, 0x00, 0x00, 0x00, 0x00,
  0x04, 0x00, 0x00, 0x00, 0xff, 0xff, 0xff, 0xff, 0x02, 0x00, 0x00, 0x00,
  0x04, 0x00, 0x00, 0x00, 0x78, 0x00, 0x00, 0x00, 0x64, 0x05, 0xfa, 0xff,
  0x5a, 0xf9, 0xff, 0xff, 0x00, 0x00, 0x00, 0x01, 0x24, 0x00, 0x00, 0x00,
  0x18, 0x00, 0x00, 0x00, 0x04, 0x00, 0x00, 0x00, 0x4c, 0xf9, 0xff, 0xff,
  0x01, 0x00, 0x00, 0x00, 0x01, 0x00, 0x00, 0x00, 0x00, 0x00, 0x00, 0x01,
  0x01, 0x00, 0x00, 0x00, 0x1a, 0x00, 0x00, 0x00, 0x03, 0x00, 0x00, 0x00,
  0x19, 0x00, 0x00, 0x00, 0x11, 0x00, 0x00, 0x00, 0x03, 0x00, 0x00, 0x00,
  0x10, 0x06, 0xfa, 0xff, 0x14, 0x00, 0x00, 0x00, 0x1b, 0x00, 0x00, 0x00,
  0x20, 0x00, 0x00, 0x00, 0xc0, 0x00, 0x00, 0x00, 0xa8, 0x00, 0x00, 0x00,
  0x04, 0x00, 0x00, 0x00, 0x01, 0x00, 0x00, 0x00, 0x02, 0x00, 0x00, 0x00,
  0x04, 0x00, 0x00, 0x00, 0x78, 0x00, 0x00, 0x00, 0x8b, 0x00, 0x00, 0x00,
  0x73, 0x65, 0x71, 0x75, 0x65, 0x6e, 0x74, 0x69, 0x61, 0x6c, 0x5f, 0x31,
  0x2f, 0x63, 0x6f, 0x6e, 0x76, 0x32, 0x64, 0x5f, 0x35, 0x2f, 0x52, 0x65,
  0x6c, 0x75, 0x3b, 0x73, 0x65, 0x71, 0x75, 0x65, 0x6e, 0x74, 0x69, 0x61,
  0x6c, 0x5f, 0x31, 0x2f, 0x63, 0x6f, 0x6e, 0x76, 0x32, 0x64, 0x5f, 0x35,
  0x2f, 0x42, 0x69, 0x61, 0x73, 0x41, 0x64, 0x64, 0x3b, 0x73, 0x65, 0x71,
  0x75, 0x65, 0x6e, 0x74, 0x69, 0x61, 0x6c, 0x5f, 0x31, 0x2f, 0x63, 0x6f,
  0x6e, 0x76, 0x32, 0x64, 0x5f, 0x35, 0x2f, 0x43, 0x6f, 0x6e, 0x76, 0x32,
  0x44, 0x3b, 0x73, 0x65, 0x71, 0x75, 0x65, 0x6e, 0x74, 0x69, 0x61, 0x6c,
  0x5f, 0x31, 0x2f, 0x63, 0x6f, 0x6e, 0x76, 0x32, 0x64, 0x5f, 0x35, 0x2f,
  0x42, 0x69, 0x61, 0x73, 0x41, 0x64, 0x64, 0x2f, 0x52, 0x65, 0x61, 0x64,
  0x56, 0x61, 0x72, 0x69, 0x61, 0x62, 0x6c, 0x65, 0x4f, 0x70, 0x2f, 0x72,
  0x65, 0x73, 0x6f, 0x75, 0x72, 0x63, 0x65, 0x00, 0x04, 0x00, 0x00, 0x00,
  0xff, 0xff, 0xff, 0xff, 0x02, 0x00, 0x00, 0x00, 0x04, 0x00, 0x00, 0x00,
  0x78, 0x00, 0x00, 0x00, 0x74, 0x06, 0xfa, 0xff, 0x3a, 0xfb, 0xff, 0xff,
  0x00, 0x00, 0x00, 0x05, 0x03, 0x00, 0x00, 0x00, 0x2c, 0x00, 0x00, 0x00,
  0x20, 0x00, 0x00, 0x00, 0x04, 0x00, 0x00, 0x00, 0xce, 0xfc, 0xff, 0xff,
  0x02, 0x00, 0x00, 0x00, 0x02, 0x00, 0x00, 0x00, 0x02, 0x00, 0x00, 0x00,
  0x02, 0x00, 0x00, 0x00, 0x00, 0x00, 0x00, 0x01, 0x01, 0x00, 0x00, 0x00,
  0x19, 0x00, 0x00, 0x00, 0x01, 0x00, 0x00, 0x00, 0x18, 0x00, 0x00, 0x00,
  0x24, 0x07, 0xfa, 0xff, 0x14, 0x00, 0x00, 0x00, 0x1a, 0x00, 0x00, 0x00,
  0x20, 0x00, 0x00, 0x00, 0x5c, 0x00, 0x00, 0x00, 0x44, 0x00, 0x00, 0x00,
  0x04, 0x00, 0x00, 0x00, 0x01, 0x00, 0x00, 0x00, 0x02, 0x00, 0x00, 0x00,
  0x04, 0x00, 0x00, 0x00, 0x3c, 0x00, 0x00, 0x00, 0x24, 0x00, 0x00, 0x00,
  0x73, 0x65, 0x71, 0x75, 0x65, 0x6e, 0x74, 0x69, 0x61, 0x6c, 0x5f, 0x31,
  0x2f, 0x6d, 0x61, 0x78, 0x5f, 0x70, 0x6f, 0x6f, 0x6c, 0x69, 0x6e, 0x67,
  0x32, 0x64, 0x5f, 0x34, 0x2f, 0x4d, 0x61, 0x78, 0x50, 0x6f, 0x6f, 0x6c,
  0x00, 0x00, 0x00, 0x00, 0x04, 0x00, 0x00, 0x00, 0xff, 0xff, 0xff, 0xff,
  0x02, 0x00, 0x00, 0x00, 0x04, 0x00, 0x00, 0x00, 0x3c, 0x00, 0x00, 0x00,
  0x24, 0x07, 0xfa, 0xff, 0xea, 0xfb, 0xff, 0xff, 0x00, 0x00, 0x00, 0x0b,
  0x02, 0x00, 0x00, 0x00, 0x18, 0x00, 0x00, 0x00, 0x0c, 0x00, 0x00, 0x00,
  0x04, 0x00, 0x00, 0x00, 0x40, 0x07, 0xfa, 0xff, 0x01, 0x00, 0x00, 0x00,
  0x18, 0x00, 0x00, 0x00, 0x02, 0x00, 0x00, 0x00, 0x17, 0x00, 0x00, 0x00,
  0x09, 0x00, 0x00, 0x00, 0xc4, 0x07, 0xfa, 0xff, 0x14, 0x00, 0x00, 0x00,
  0x19, 0x00, 0x00, 0x00, 0x20, 0x00, 0x00, 0x00, 0x6c, 0x00, 0x00, 0x00,
  0x54, 0x00, 0x00, 0x00, 0x04, 0x00, 0x00, 0x00, 0x01, 0x00, 0x00, 0x00,
  0x04, 0x00, 0x00, 0x00, 0x08, 0x00, 0x00, 0x00, 0x3c, 0x00, 0x00, 0x00,
  0x34, 0x00, 0x00, 0x00, 0x73, 0x65, 0x71, 0x75, 0x65, 0x6e, 0x74, 0x69,
  0x61, 0x6c, 0x5f, 0x31, 0x2f, 0x62, 0x61, 0x74, 0x63, 0x68, 0x5f, 0x6e,
  0x6f, 0x72, 0x6d, 0x61, 0x6c, 0x69, 0x7a, 0x61, 0x74, 0x69, 0x6f, 0x6e,
  0x5f, 0x34, 0x2f, 0x46, 0x75, 0x73, 0x65, 0x64, 0x42, 0x61, 0x74, 0x63,
  0x68, 0x4e, 0x6f, 0x72, 0x6d, 0x56, 0x33, 0x33, 0x00, 0x00, 0x00, 0x00,
  0x04, 0x00, 0x00, 0x00, 0xff, 0xff, 0xff, 0xff, 0x04, 0x00, 0x00, 0x00,
  0x08, 0x00, 0x00, 0x00, 0x3c, 0x00, 0x00, 0x00, 0xd4, 0x07, 0xfa, 0xff,
  0x9a, 0xfc, 0xff, 0xff, 0x00, 0x00, 0x00, 0x15, 0x01, 0x00, 0x00, 0x00,
  0x18, 0x00, 0x00, 0x00, 0x0c, 0x00, 0x00, 0x00, 0x04, 0x00, 0x00, 0x00,
  0xf0, 0x07, 0xfa, 0xff, 0x01, 0x00, 0x00, 0x00, 0x17, 0x00, 0x00, 0x00,
  0x02, 0x00, 0x00, 0x00, 0x16, 0x00, 0x00, 0x00, 0x0a, 0x00, 0x00, 0x00,
  0x74, 0x08, 0xfa, 0xff, 0x14, 0x00, 0x00, 0x00, 0x18, 0x00, 0x00, 0x00,
  0x20, 0x00, 0x00, 0x00, 0x6c, 0x00, 0x00, 0x00, 0x54, 0x00, 0x00, 0x00,
  0x04, 0x00, 0x00, 0x00, 0x01, 0x00, 0x00, 0x00, 0x04, 0x00, 0x00, 0x00,
  0x08, 0x00, 0x00, 0x00, 0x3c, 0x00, 0x00, 0x00, 0x34, 0x00, 0x00, 0x00,
  0x73, 0x65, 0x71, 0x75, 0x65, 0x6e, 0x74, 0x69, 0x61, 0x6c, 0x5f, 0x31,
  0x2f, 0x62, 0x61, 0x74, 0x63, 0x68, 0x5f, 0x6e, 0x6f, 0x72, 0x6d, 0x61,
  0x6c, 0x69, 0x7a, 0x61, 0x74, 0x69, 0x6f, 0x6e, 0x5f, 0x34, 0x2f, 0x46,
  0x75, 0x73, 0x65, 0x64, 0x42, 0x61, 0x74, 0x63, 0x68, 0x4e, 0x6f, 0x72,
  0x6d, 0x56, 0x33, 0x32, 0x00, 0x00, 0x00, 0x00, 0x04, 0x00, 0x00, 0x00,
  0xff, 0xff, 0xff, 0xff, 0x04, 0x00, 0x00, 0x00, 0x08, 0x00, 0x00, 0x00,
  0x3c, 0x00, 0x00, 0x00, 0x84, 0x08, 0xfa, 0xff, 0x7a, 0xfc, 0xff, 0xff,
  0x00, 0x00, 0x00, 0x01, 0x24, 0x00, 0x00, 0x00, 0x18, 0x00, 0x00, 0x00,
  0x04, 0x00, 0x00, 0x00, 0x6c, 0xfc, 0xff, 0xff, 0x01, 0x00, 0x00, 0x00,
  0x01, 0x00, 0x00, 0x00, 0x00, 0x00, 0x00, 0x01, 0x01, 0x00, 0x00, 0x00,
  0x16, 0x00, 0x00, 0x00, 0x03, 0x00, 0x00, 0x00, 0x15, 0x00, 0x00, 0x00,
  0x10, 0x00, 0x00, 0x00, 0x02, 0x00, 0x00, 0x00, 0x30, 0x09, 0xfa, 0xff,
  0x14, 0x00, 0x00, 0x00, 0x17, 0x00, 0x00, 0x00, 0x20, 0x00, 0x00, 0x00,
  0xc0, 0x00, 0x00, 0x00, 0xa8, 0x00, 0x00, 0x00, 0x04, 0x00, 0x00, 0x00,
  0x01, 0x00, 0x00, 0x00, 0x04, 0x00, 0x00, 0x00, 0x08, 0x00, 0x00, 0x00,
  0x3c, 0x00, 0x00, 0x00, 0x8b, 0x00, 0x00, 0x00, 0x73, 0x65, 0x71, 0x75,
  0x65, 0x6e, 0x74, 0x69, 0x61, 0x6c, 0x5f, 0x31, 0x2f, 0x63, 0x6f, 0x6e,
  0x76, 0x32, 0x64, 0x5f, 0x34, 0x2f, 0x52, 0x65, 0x6c, 0x75, 0x3b, 0x73,
  0x65, 0x71, 0x75, 0x65, 0x6e, 0x74, 0x69, 0x61, 0x6c, 0x5f, 0x31, 0x2f,
  0x63, 0x6f, 0x6e, 0x76, 0x32, 0x64, 0x5f, 0x34, 0x2f, 0x42, 0x69, 0x61,
  0x73, 0x41, 0x64, 0x64, 0x3b, 0x73, 0x65, 0x71, 0x75, 0x65, 0x6e, 0x74,
  0x69, 0x61, 0x6c, 0x5f, 0x31, 0x2f, 0x63, 0x6f, 0x6e, 0x76, 0x32, 0x64,
  0x5f, 0x34, 0x2f, 0x43, 0x6f, 0x6e, 0x76, 0x32, 0x44, 0x3b, 0x73, 0x65,
  0x71, 0x75, 0x65, 0x6e, 0x74, 0x69, 0x61, 0x6c, 0x5f, 0x31, 0x2f, 0x63,
  0x6f, 0x6e, 0x76, 0x32, 0x64, 0x5f, 0x34, 0x2f, 0x42, 0x69, 0x61, 0x73,
  0x41, 0x64, 0x64, 0x2f, 0x52, 0x65, 0x61, 0x64, 0x56, 0x61, 0x72, 0x69,
  0x61, 0x62, 0x6c, 0x65, 0x4f, 0x70, 0x2f, 0x72, 0x65, 0x73, 0x6f, 0x75,
  0x72, 0x63, 0x65, 0x00, 0x04, 0x00, 0x00, 0x00, 0xff, 0xff, 0xff, 0xff,
  0x04, 0x00, 0x00, 0x00, 0x08, 0x00, 0x00, 0x00, 0x3c, 0x00, 0x00, 0x00,
  0x28, 0x0b, 0xfa, 0xff, 0x00, 0x00, 0x0e, 0x00, 0x1a, 0x00, 0x08, 0x00,
  0x0c, 0x00, 0x10, 0x00, 0x07, 0x00, 0x14, 0x00, 0x0e, 0x00, 0x00, 0x00,
  0x00, 0x00, 0x00, 0x05, 0x03, 0x00, 0x00, 0x00, 0x3c, 0x00, 0x00, 0x00,
  0x30, 0x00, 0x00, 0x00, 0x14, 0x00, 0x00, 0x00, 0x00, 0x00, 0x0e, 0x00,
  0x18, 0x00, 0x17, 0x00, 0x10, 0x00, 0x0c, 0x00, 0x08, 0x00, 0x04, 0x00,
  0x0e, 0x00, 0x00, 0x00, 0x02, 0x00, 0x00, 0x00, 0x02, 0x00, 0x00, 0x00,
  0x02, 0x00, 0x00, 0x00, 0x02, 0x00, 0x00, 0x00, 0x00, 0x00, 0x00, 0x01,
  0x01, 0x00, 0x00, 0x00, 0x15, 0x00, 0x00, 0x00, 0x01, 0x00, 0x00, 0x00,
  0x14, 0x00, 0x00, 0x00, 0x94, 0xfd, 0xff, 0xff, 0x11, 0x00, 0x00, 0x00,
  0x00, 0x00, 0x00, 0x11, 0x01, 0x00, 0x00, 0x00, 0x74, 0x0a, 0xfa, 0xff,
  0x14, 0x00, 0x00, 0x00, 0x16, 0x00, 0x00, 0x00, 0x20, 0x00, 0x00, 0x00,
  0x5c, 0x00, 0x00, 0x00, 0x44, 0x00, 0x00, 0x00, 0x04, 0x00, 0x00, 0x00,
  0x01, 0x00, 0x00, 0x00, 0x04, 0x00, 0x00, 0x00, 0x08, 0x00, 0x00, 0x00,
  0x28, 0x00, 0x00, 0x00, 0x24, 0x00, 0x00, 0x00, 0x73, 0x65, 0x71, 0x75,
  0x65, 0x6e, 0x74, 0x69, 0x61, 0x6c, 0x5f, 0x31, 0x2f, 0x6d, 0x61, 0x78,
  0x5f, 0x70, 0x6f, 0x6f, 0x6c, 0x69, 0x6e, 0x67, 0x32, 0x64, 0x5f, 0x33,
  0x2f, 0x4d, 0x61, 0x78, 0x50, 0x6f, 0x6f, 0x6c, 0x00, 0x00, 0x00, 0x00,
  0x04, 0x00, 0x00, 0x00, 0xff, 0xff, 0xff, 0xff, 0x04, 0x00, 0x00, 0x00,
  0x08, 0x00, 0x00, 0x00, 0x28, 0x00, 0x00, 0x00, 0x74, 0x0a, 0xfa, 0xff,
  0x3a, 0xff, 0xff, 0xff, 0x00, 0x00, 0x00, 0x0b, 0x02, 0x00, 0x00, 0x00,
  0x18, 0x00, 0x00, 0x00, 0x0c, 0x00, 0x00, 0x00, 0x04, 0x00, 0x00, 0x00,
  0x90, 0x0a, 0xfa, 0xff, 0x01, 0x00, 0x00, 0x00, 0x14, 0x00, 0x00, 0x00,
  0x02, 0x00, 0x00, 0x00, 0x13, 0x00, 0x00, 0x00, 0x07, 0x00, 0x00, 0x00,
  0x00, 0x00, 0x0a, 0x00, 0x08, 0x00, 0x00, 0x00, 0x00, 0x00, 0x04, 0x00,
  0x0a, 0x00, 0x00, 0x00, 0x01, 0x00, 0x00, 0x00, 0x28, 0x0b, 0xfa, 0xff,
  0x14, 0x00, 0x00, 0x00, 0x15, 0x00, 0x00, 0x00, 0x20, 0x00, 0x00, 0x00,
  0x6c, 0x00, 0x00, 0x00, 0x54, 0x00, 0x00, 0x00, 0x04, 0x00, 0x00, 0x00,
  0x01, 0x00, 0x00, 0x00, 0x08, 0x00, 0x00, 0x00, 0x10, 0x00, 0x00, 0x00,
  0x28, 0x00, 0x00, 0x00, 0x34, 0x00, 0x00, 0x00, 0x73, 0x65, 0x71, 0x75,
  0x65, 0x6e, 0x74, 0x69, 0x61, 0x6c, 0x5f, 0x31, 0x2f, 0x62, 0x61, 0x74,
  0x63, 0x68, 0x5f, 0x6e, 0x6f, 0x72, 0x6d, 0x61, 0x6c, 0x69, 0x7a, 0x61,
  0x74, 0x69, 0x6f, 0x6e, 0x5f, 0x33, 0x2f, 0x46, 0x75, 0x73, 0x65, 0x64,
  0x42, 0x61, 0x74, 0x63, 0x68, 0x4e, 0x6f, 0x72, 0x6d, 0x56, 0x33, 0x33,
  0x00, 0x00, 0x00, 0x00, 0x04, 0x00, 0x00, 0x00, 0xff, 0xff, 0xff, 0xff,
  0x08, 0x00, 0x00, 0x00, 0x10, 0x00, 0x00, 0x00, 0x28, 0x00, 0x00, 0x00,
  0xcc, 0x0c, 0xfa, 0xff, 0x00, 0x00, 0x0e, 0x00, 0x18, 0x00, 0x08, 0x00,
  0x0c, 0x00, 0x10, 0x00, 0x07, 0x00, 0x14, 0x00, 0x0e, 0x00, 0x00, 0x00,
  0x00, 0x00, 0x00, 0x15, 0x01, 0x00, 0x00, 0x00, 0x18, 0x00, 0x00, 0x00,
  0x0c, 0x00, 0x00, 0x00, 0x04, 0x00, 0x00, 0x00, 0x64, 0x0b, 0xfa, 0xff,
  0x01, 0x00, 0x00, 0x00, 0x13, 0x00, 0x00, 0x00, 0x02, 0x00, 0x00, 0x00,
  0x12, 0x00, 0x00, 0x00, 0x08, 0x00, 0x00, 0x00, 0x18, 0xff, 0xff, 0xff,
  0x12, 0x00, 0x00, 0x00, 0x00, 0x00, 0x00, 0x12, 0x01, 0x00, 0x00, 0x00,
  0xf8, 0x0b, 0xfa, 0xff, 0x14, 0x00, 0x00, 0x00, 0x14, 0x00, 0x00, 0x00,
  0x20, 0x00, 0x00, 0x00, 0x6c, 0x00, 0x00, 0x00, 0x54, 0x00, 0x00, 0x00,
  0x04, 0x00, 0x00, 0x00, 0x01, 0x00, 0x00, 0x00, 0x08, 0x00, 0x00, 0x00,
  0x10, 0x00, 0x00, 0x00, 0x28, 0x00, 0x00, 0x00, 0x34, 0x00, 0x00, 0x00,
  0x73, 0x65, 0x71, 0x75, 0x65, 0x6e, 0x74, 0x69, 0x61, 0x6c, 0x5f, 0x31,
  0x2f, 0x62, 0x61, 0x74, 0x63, 0x68, 0x5f, 0x6e, 0x6f, 0x72, 0x6d, 0x61,
  0x6c, 0x69, 0x7a, 0x61, 0x74, 0x69, 0x6f, 0x6e, 0x5f, 0x33, 0x2f, 0x46,
  0x75, 0x73, 0x65, 0x64, 0x42, 0x61, 0x74, 0x63, 0x68, 0x4e, 0x6f, 0x72,
  0x6d, 0x56, 0x33, 0x32, 0x00, 0x00, 0x00, 0x00, 0x04, 0x00, 0x00, 0x00,
  0xff, 0xff, 0xff, 0xff, 0x08, 0x00, 0x00, 0x00, 0x10, 0x00, 0x00, 0x00,
  0x28, 0x00, 0x00, 0x00, 0x9c, 0x0d, 0xfa, 0xff, 0x00, 0x00, 0x0e, 0x00,
  0x14, 0x00, 0x00, 0x00, 0x08, 0x00, 0x0c, 0x00, 0x07, 0x00, 0x10, 0x00,
  0x0e, 0x00, 0x00, 0x00, 0x00, 0x00, 0x00, 0x01, 0x30, 0x00, 0x00, 0x00,
  0x24, 0x00, 0x00, 0x00, 0x10, 0x00, 0x00, 0x00, 0x0c, 0x00, 0x10, 0x00,
  0x00, 0x00, 0x04, 0x00, 0x08, 0x00, 0x0f, 0x00, 0x0c, 0x00, 0x00, 0x00,
  0x01, 0x00, 0x00, 0x00, 0x01, 0x00, 0x00, 0x00, 0x00, 0x00, 0x00, 0x01,
  0x01, 0x00, 0x00, 0x00, 0x12, 0x00, 0x00, 0x00, 0x03, 0x00, 0x00, 0x00,
  0x00, 0x00, 0x00, 0x00, 0x0f, 0x00, 0x00, 0x00, 0x01, 0x00, 0x00, 0x00,
  0x0c, 0x00, 0x10, 0x00, 0x0b, 0x00, 0x00, 0x00, 0x0c, 0x00, 0x04, 0x00,
  0x0c, 0x00, 0x00, 0x00, 0x03, 0x00, 0x00, 0x00, 0x00, 0x00, 0x00, 0x03,
  0x01, 0x00, 0x00, 0x00, 0xec, 0x0c, 0xfa, 0xff, 0x14, 0x00, 0x00, 0x00,
  0x13, 0x00, 0x00, 0x00, 0x20, 0x00, 0x00, 0x00, 0xc0, 0x00, 0x00, 0x00,
  0xa8, 0x00, 0x00, 0x00, 0x04, 0x00, 0x00, 0x00, 0x01, 0x00, 0x00, 0x00,
  0x08, 0x00, 0x00, 0x00, 0x10, 0x00, 0x00, 0x00, 0x28, 0x00, 0x00, 0x00,
  0x8b, 0x00, 0x00, 0x00, 0x73, 0x65, 0x71, 0x75, 0x65, 0x6e, 0x74, 0x69,
  0x61, 0x6c, 0x5f, 0x31, 0x2f, 0x63, 0x6f, 0x6e, 0x76, 0x32, 0x64, 0x5f,
  0x33, 0x2f, 0x52, 0x65, 0x6c, 0x75, 0x3b, 0x73, 0x65, 0x71, 0x75, 0x65,
  0x6e, 0x74, 0x69, 0x61, 0x6c, 0x5f, 0x31, 0x2f, 0x63, 0x6f, 0x6e, 0x76,
  0x32, 0x64, 0x5f, 0x33, 0x2f, 0x42, 0x69, 0x61, 0x73, 0x41, 0x64, 0x64,
  0x3b, 0x73, 0x65, 0x71, 0x75, 0x65, 0x6e, 0x74, 0x69, 0x61, 0x6c, 0x5f,
  0x31, 0x2f, 0x63, 0x6f, 0x6e, 0x76, 0x32, 0x64, 0x5f, 0x33, 0x2f, 0x43,
  0x6f, 0x6e, 0x76, 0x32, 0x44, 0x3b, 0x73, 0x65, 0x71, 0x75, 0x65, 0x6e,
  0x74, 0x69, 0x61, 0x6c, 0x5f, 0x31, 0x2f, 0x63, 0x6f, 0x6e, 0x76, 0x32,
  0x64, 0x5f, 0x33, 0x2f, 0x42, 0x69, 0x61, 0x73, 0x41, 0x64, 0x64, 0x2f,
  0x52, 0x65, 0x61, 0x64, 0x56, 0x61, 0x72, 0x69, 0x61, 0x62, 0x6c, 0x65,
  0x4f, 0x70, 0x2f, 0x72, 0x65, 0x73, 0x6f, 0x75, 0x72, 0x63, 0x65, 0x00,
  0x04, 0x00, 0x00, 0x00, 0xff, 0xff, 0xff, 0xff, 0x08, 0x00, 0x00, 0x00,
  0x10, 0x00, 0x00, 0x00, 0x28, 0x00, 0x00, 0x00, 0x50, 0x0d, 0xfa, 0xff,
  0xde, 0x0e, 0xfa, 0xff, 0x04, 0x00, 0x00, 0x00, 0x80, 0xf4, 0x03, 0x00,
  0x00, 0x00, 0x80, 0xbc, 0x00, 0x00, 0x80, 0xbc, 0x00, 0x00, 0x80, 0x3d,
  0x00, 0x00, 0x80, 0xbc, 0x00, 0x00, 0x80, 0x3c, 0x00, 0x00, 0x80, 0xbd,
  0x00, 0x00, 0x00, 0xbd, 0x00, 0x00, 0x80, 0xbd, 0x00, 0x00, 0x80, 0x3d,
  0x00, 0x00, 0x80, 0x3d, 0x00, 0x00, 0x00, 0x00, 0x00, 0x00, 0x80, 0xbd,
  0x00, 0x00, 0x80, 0x3c, 0x00, 0x00, 0x00, 0x3d, 0x00, 0x00, 0x80, 0xbd,
  0x00, 0x00, 0x80, 0xbd, 0x00, 0x00, 0x00, 0x00, 0x00, 0x00, 0x00, 0x00,
  0x00, 0x00, 0x80, 0x3d, 0x00, 0x00, 0x80, 0x3d, 0x00, 0x00, 0x00, 0xbd,
  0x00, 0x00, 0x00, 0x00, 0x00, 0x00, 0x80, 0x3d, 0x00, 0x00, 0x00, 0xbe,
  0x00, 0x00, 0x80, 0x3c, 0x00, 0x00, 0x80, 0x3c, 0x00, 0x00, 0x80, 0x3d,
  0x00, 0x00, 0x00, 0x3d, 0x00, 0x00, 0x00, 0x00, 0x00, 0x00, 0x80, 0x3d,
  0x00, 0x00, 0x00, 0xbd, 0x00, 0x00, 0x00, 0x3d, 0x00, 0x00, 0x80, 0xbd,
  0x00, 0x00, 0x80, 0xbc, 0x00, 0x00, 0x80, 0x3d, 0x00, 0x00, 0x80, 0xbc,
  0x00, 0x00, 0x00, 0x3d, 0x00, 0x00, 0x00, 0x3d, 0x00, 0x00, 0x00, 0x00,
  0x00, 0x00, 0x80, 0x3d, 0x00, 0x00, 0x80, 0xbd, 0x00, 0x00, 0x00, 0xbe,
  0x00, 0x00, 0x80, 0x3d, 0x00, 0x00, 0x80, 0x3d, 0x00, 0x00, 0x80, 0xbc,
  0x00, 0x00, 0x80, 0xbd, 0x00, 0x00, 0x00, 0xbe, 0x00, 0x00, 0x80, 0xbd,
  0x00, 0x00, 0x00, 0xbd, 0x00, 0x00, 0x00, 0x3d, 0x00, 0x00, 0x80, 0x3d,
  0x00, 0x00, 0x80, 0xbc, 0x00, 0x00, 0x80, 0xbd, 0x00, 0x00, 0x00, 0xbd,
  0x00, 0x00, 0x00, 0xbe, 0x00, 0x00, 0x00, 0x3d, 0x00, 0x00, 0x80, 0xbd,
  0x00, 0x00, 0x80, 0x3c, 0x00, 0x00, 0x00, 0x00, 0x00, 0x00, 0x00, 0x00,
  0x00, 0x00, 0x80, 0x3d, 0x00, 0x00, 0x80, 0xbd, 0x00, 0x00, 0x80, 0x3d,
  0x00, 0x00, 0x80, 0x3d, 0x00, 0x00, 0x80, 0x3c, 0x00, 0x00, 0x00, 0xbe,
  0x00, 0x00, 0x80, 0xbd, 0x00, 0x00, 0x80, 0xbd, 0x00, 0x00, 0x00, 0x3e,
  0x00, 0x00, 0x00, 0x00, 0x00, 0x00, 0x80, 0xbc, 0x00, 0x00, 0x00, 0x3d,
  0x00, 0x00, 0x00, 0xbe, 0x00, 0x00, 0x00, 0x3d, 0x00, 0x00, 0x80, 0x3d,
  0x00, 0x00, 0x80, 0xbd, 0x00, 0x00, 0x80, 0xbc, 0x00, 0x00, 0x80, 0x3d,
  0x00, 0x00, 0x00, 0x00, 0x00, 0x00, 0x80, 0xbc, 0x00, 0x00, 0x00, 0x00,
  0x00, 0x00, 0x00, 0x3d, 0x00, 0x00, 0x80, 0x3c, 0x00, 0x00, 0x80, 0x3d,
  0x00, 0x00, 0x80, 0xbd, 0x00, 0x00, 0x80, 0x3d, 0x00, 0x00, 0x00, 0xbd,
  0x00, 0x00, 0x80, 0x3c, 0x00, 0x00, 0x80, 0x3d, 0x00, 0x00, 0x80, 0xbc,
  0x00, 0x00, 0x00, 0x00, 0x00, 0x00, 0x80, 0xbc, 0x00, 0x00, 0x00, 0x3d,
  0x00, 0x00, 0x00, 0xbd, 0x00, 0x00, 0x00, 0xbd, 0x00, 0x00, 0x80, 0x3c,
  0x00, 0x00, 0x00, 0x00, 0x00, 0x00, 0x00, 0x3d, 0x00, 0x00, 0x00, 0x00,
  0x00, 0x00, 0x80, 0xbd, 0x00, 0x00, 0x80, 0x3d, 0x00, 0x00, 0x80, 0x3d,
  0x00, 0x00, 0x80, 0xbd, 0x00, 0x00, 0x80, 0xbd, 0x00, 0x00, 0x80, 0xbc,
  0x00, 0x00, 0x80, 0xbd, 0x00, 0x00, 0x80, 0xbc, 0x00, 0x00, 0x80, 0x3d,
  0x00, 0x00, 0x80, 0x3d, 0x00, 0x00, 0x80, 0xbc, 0x00, 0x00, 0x80, 0x3d,
  0x00, 0x00, 0x00, 0x00, 0x00, 0x00, 0x80, 0x3d, 0x00, 0x00, 0x00, 0xbe,
  0x00, 0x00, 0x80, 0x3d, 0x00, 0x00, 0x80, 0xbc, 0x00, 0x00, 0x00, 0xbe,
  0x00, 0x00, 0x00, 0x00, 0x00, 0x00, 0x80, 0xbd, 0x00, 0x00, 0x00, 0xbd,
  0x00, 0x00, 0x00, 0x00, 0x00, 0x00, 0x80, 0x3d, 0x00, 0x00, 0x80, 0xbd,
  0x00, 0x00, 0x80, 0xbd, 0x00, 0x00, 0x00, 0x3d, 0x00, 0x00, 0x00, 0x3d,
  0x00, 0x00, 0x80, 0xbd, 0x00, 0x00, 0x00, 0x3e, 0x00, 0x00, 0x80, 0xbc,
  0x00, 0x00, 0x80, 0x3c, 0x00, 0x00, 0x00, 0x3d, 0x00, 0x00, 0x80, 0x3d,
  0x00, 0x00, 0x00, 0x3d, 0x00, 0x00, 0x00, 0x3e, 0x00, 0x00, 0x00, 0x00,
  0x00, 0x00, 0x00, 0x3d, 0x00, 0x00, 0x00, 0xbe, 0x00, 0x00, 0x00, 0x00,
  0x00, 0x00, 0x80, 0x3d, 0x00, 0x00, 0x80, 0x3d, 0x00, 0x00, 0x80, 0xbc,
  0x00, 0x00, 0x00, 0x3e, 0x00, 0x00, 0x80, 0xbd, 0x00, 0x00, 0x80, 0x3d,
  0x00, 0x00, 0x00, 0x00, 0x00, 0x00, 0x80, 0x3c, 0x00, 0x00, 0x80, 0x3c,
  0x00, 0x00, 0x80, 0x3d, 0x00, 0x00, 0x80, 0x3d, 0x00, 0x00, 0x80, 0x3d,
  0x00, 0x00, 0x00, 0x00, 0x00, 0x00, 0x80, 0xbd, 0x00, 0x00, 0x00, 0xbe,
  0x00, 0x00, 0x00, 0x3d, 0x00, 0x00, 0x80, 0xbd, 0x00, 0x00, 0x00, 0xbd,
  0x00, 0x00, 0x00, 0x00, 0x00, 0x00, 0x00, 0xbd, 0x00, 0x00, 0x80, 0x3c,
  0x00, 0x00, 0x00, 0x3e, 0x00, 0x00, 0x80, 0x3d, 0x00, 0x00, 0x80, 0xbc,
  0x00, 0x00, 0x80, 0x3c, 0x00, 0x00, 0x80, 0x3d, 0x00, 0x00, 0x00, 0x3d,
  0x00, 0x00, 0x00, 0x3d, 0x00, 0x00, 0x80, 0xbd, 0x00, 0x00, 0x80, 0x3d,
  0x00, 0x00, 0x80, 0xbd, 0x00, 0x00, 0x00, 0x3d, 0x00, 0x00, 0x80, 0x3d,
  0x00, 0x00, 0x80, 0x3d, 0x00, 0x00, 0x80, 0xbd, 0x00, 0x00, 0x80, 0x3c,
  0x00, 0x00, 0x80, 0x3c, 0x00, 0x00, 0x80, 0x3d, 0x00, 0x00, 0x00, 0xbe,
  0x00, 0x00, 0x00, 0x3e, 0x00, 0x00, 0x80, 0xbd, 0x00, 0x00, 0x80, 0xbd,
  0x00, 0x00, 0x00, 0x00, 0x00, 0x00, 0x80, 0x3d, 0x00, 0x00, 0x80, 0x3c,
  0x00, 0x00, 0x00, 0xbe, 0x00, 0x00, 0x00, 0x3d, 0x00, 0x00, 0x80, 0xbd,
  0x00, 0x00, 0x00, 0xbe, 0x00, 0x00, 0x00, 0xbe, 0x00, 0x00, 0x00, 0x3d,
  0x00, 0x00, 0x80, 0xbd, 0x00, 0x00, 0x80, 0x3d, 0x00, 0x00, 0x00, 0x00,
  0x00, 0x00, 0x00, 0x3e, 0x00, 0x00, 0x00, 0xbd, 0x00, 0x00, 0x00, 0x3e,
  0x00, 0x00, 0x00, 0xbd, 0x00, 0x00, 0x80, 0x3c, 0x00, 0x00, 0x80, 0xbd,
  0x00, 0x00, 0x00, 0x3e, 0x00, 0x00, 0x00, 0x00, 0x00, 0x00, 0x80, 0xbd,
  0x00, 0x00, 0x00, 0x00, 0x00, 0x00, 0x00, 0xbe, 0x00, 0x00, 0x00, 0x3d,
  0x00, 0x00, 0x80, 0xbd, 0x00, 0x00, 0x00, 0xbe, 0x00, 0x00, 0x80, 0x3d,
  0x00, 0x00, 0x80, 0x3c, 0x00, 0x00, 0x80, 0xbc, 0x00, 0x00, 0x80, 0x3d,
  0x00, 0x00, 0x00, 0x00, 0x00, 0x00, 0x00, 0xbd, 0x00, 0x00, 0x00, 0x3d,
  0x00, 0x00, 0x00, 0xbe, 0x00, 0x00, 0x80, 0x3d, 0x00, 0x00, 0x00, 0x00,
  0x00, 0x00, 0x80, 0xbc, 0x00, 0x00, 0x00, 0x3e, 0x00, 0x00, 0x00, 0xbe,
  0x00, 0x00, 0x80, 0x3d, 0x00, 0x00, 0x80, 0x3d, 0x00, 0x00, 0x80, 0x3d,
  0x00, 0x00, 0x00, 0xbd, 0x00, 0x00, 0x80, 0x3d, 0x00, 0x00, 0x80, 0xbd,
  0x00, 0x00, 0x00, 0x00, 0x00, 0x00, 0x00, 0xbd, 0x00, 0x00, 0x00, 0x3e,
  0x00, 0x00, 0x00, 0xbd, 0x00, 0x00, 0x80, 0x3d, 0x00, 0x00, 0x80, 0xbd,
  0x00, 0x00, 0x80, 0x3d, 0x00, 0x00, 0x00, 0x00, 0x00, 0x00, 0x80, 0x3d,
  0x00, 0x00, 0x80, 0xbd, 0x00, 0x00, 0x80, 0x3c, 0x00, 0x00, 0x80, 0xbd,
  0x00, 0x00, 0x00, 0xbd, 0x00, 0x00, 0x80, 0xbd, 0x00, 0x00, 0x00, 0x00,
  0x00, 0x00, 0x80, 0xbd, 0x00, 0x00, 0x80, 0xbd, 0x00, 0x00, 0x80, 0x3d,
  0x00, 0x00, 0x00, 0x3d, 0x00, 0x00, 0x00, 0x00, 0x00, 0x00, 0x80, 0xbd,
  0x00, 0x00, 0x80, 0x3d, 0x00, 0x00, 0x00, 0x00, 0x00, 0x00, 0x80, 0x3d,
  0x00, 0x00, 0x00, 0x3e, 0x00, 0x00, 0x80, 0x3d, 0x00, 0x00, 0x80, 0x3d,
  0x00, 0x00, 0x80, 0x3c, 0x00, 0x00, 0x00, 0x3e, 0x00, 0x00, 0x00, 0x3d,
  0x00, 0x00, 0x00, 0x3d, 0x00, 0x00, 0x00, 0xbd, 0x00, 0x00, 0x80, 0x3d,
  0x00, 0x00, 0x80, 0x3d, 0x00, 0x00, 0x00, 0xbd, 0x00, 0x00, 0x00, 0xbd,
  0x00, 0x00, 0x80, 0x3d, 0x00, 0x00, 0x80, 0x3d, 0x00, 0x00, 0x80, 0x3d,
  0x00, 0x00, 0x00, 0x3d, 0x00, 0x00, 0x00, 0xbd, 0x00, 0x00, 0x80, 0xbd,
  0x00, 0x00, 0x80, 0x3d, 0x00, 0x00, 0x00, 0x3d, 0x00, 0x00, 0x80, 0x3d,
  0x00, 0x00, 0x00, 0xbd, 0x00, 0x00, 0x80, 0xbd, 0x00, 0x00, 0x00, 0x00,
  0x00, 0x00, 0x80, 0x3d, 0x00, 0x00, 0x00, 0x3e, 0x00, 0x00, 0x00, 0x3d,
  0x00, 0x00, 0x80, 0x3d, 0x00, 0x00, 0x80, 0x3d, 0x00, 0x00, 0x00, 0xbd,
  0x00, 0x00, 0x80, 0x3d, 0x00, 0x00, 0x00, 0x3d, 0x00, 0x00, 0x80, 0x3c,
  0x00, 0x00, 0x00, 0x00, 0x00, 0x00, 0x80, 0x3d, 0x00, 0x00, 0x80, 0xbc,
  0x00, 0x00, 0x80, 0x3d, 0x00, 0x00, 0x80, 0xbd, 0x00, 0x00, 0x80, 0x3c,
  0x00, 0x00, 0x00, 0x00, 0x00, 0x00, 0x80, 0xbd, 0x00, 0x00, 0x80, 0x3d,
  0x00, 0x00, 0x00, 0x3d, 0x00, 0x00, 0x80, 0x3d, 0x00, 0x00, 0x00, 0xbd,
  0x00, 0x00, 0x00, 0x00, 0x00, 0x00, 0x00, 0xbd, 0x00, 0x00, 0x00, 0x3e,
  0x00, 0x00, 0x00, 0xbd, 0x00, 0x00, 0x80, 0xbd, 0x00, 0x00, 0x80, 0x3d,
  0x00, 0x00, 0x80, 0x3c, 0x00, 0x00, 0x00, 0xbd, 0x00, 0x00, 0x00, 0xbe,
  0x00, 0x00, 0x80, 0x3d, 0x00, 0x00, 0x80, 0x3d, 0x00, 0x00, 0x00, 0xbd,
  0x00, 0x00, 0x80, 0x3d, 0x00, 0x00, 0x00, 0xbd, 0x00, 0x00, 0x80, 0x3d,
  0x00, 0x00, 0x00, 0x3d, 0x00, 0x00, 0x80, 0xbd, 0x00, 0x00, 0x00, 0x3e,
  0x00, 0x00, 0x80, 0x3c, 0x00, 0x00, 0x00, 0x3e, 0x00, 0x00, 0x00, 0x00,
  0x00, 0x00, 0x00, 0xbd, 0x00, 0x00, 0x80, 0xbd, 0x00, 0x00, 0x00, 0xbd,
  0x00, 0x00, 0x00, 0x3d, 0x00, 0x00, 0x00, 0x3d, 0x00, 0x00, 0x00, 0x00,
  0x00, 0x00, 0x80, 0x3d, 0x00, 0x00, 0x00, 0xbe, 0x00, 0x00, 0x00, 0xbd,
  0x00, 0x00, 0x00, 0x00, 0x00, 0x00, 0x80, 0xbc, 0x00, 0x00, 0x00, 0x00,
  0x00, 0x00, 0x00, 0x00, 0x00, 0x00, 0x80, 0x3d, 0x00, 0x00, 0x00, 0x3e,
  0x00, 0x00, 0x00, 0xbd, 0x00, 0x00, 0x80, 0x3c, 0x00, 0x00, 0x00, 0xbe,
  0x00, 0x00, 0x80, 0x3d, 0x00, 0x00, 0x00, 0x00, 0x00, 0x00, 0x00, 0x3d,
  0x00, 0x00, 0x80, 0xbd, 0x00, 0x00, 0x00, 0xbd, 0x00, 0x00, 0x80, 0xbd,
  0x00, 0x00, 0x00, 0x3d, 0x00, 0x00, 0x80, 0x3d, 0x00, 0x00, 0x80, 0x3d,
  0x00, 0x00, 0x80, 0xbd, 0x00, 0x00, 0x80, 0x3d, 0x00, 0x00, 0x80, 0x3d,
  0x00, 0x00, 0x00, 0x3d, 0x00, 0x00, 0x80, 0x3d, 0x00, 0x00, 0x80, 0x3d,
  0x00, 0x00, 0x00, 0xbd, 0x00, 0x00, 0x00, 0xbd, 0x00, 0x00, 0x80, 0x3d,
  0x00, 0x00, 0x00, 0x00, 0x00, 0x00, 0x80, 0x3d, 0x00, 0x00, 0x00, 0xbd,
  0x00, 0x00, 0x00, 0x3d, 0x00, 0x00, 0x00, 0x3d, 0x00, 0x00, 0x80, 0x3c,
  0x00, 0x00, 0x00, 0x00, 0x00, 0x00, 0x00, 0xbd, 0x00, 0x00, 0x80, 0xbd,
  0x00, 0x00, 0x80, 0x3c, 0x00, 0x00, 0x80, 0xbd, 0x00, 0x00, 0x00, 0xbd,
  0x00, 0x00, 0x00, 0x00, 0x00, 0x00, 0x80, 0x3c, 0x00, 0x00, 0x80, 0x3d,
  0x00, 0x00, 0x80, 0x3c, 0x00, 0x00, 0x00, 0x3e, 0x00, 0x00, 0x80, 0x3d,
  0x00, 0x00, 0x80, 0xbd, 0x00, 0x00, 0x00, 0xbd, 0x00, 0x00, 0x00, 0x00,
  0x00, 0x00, 0x80, 0x3d, 0x00, 0x00, 0x80, 0x3d, 0x00, 0x00, 0x00, 0x3d,
  0x00, 0x00, 0x00, 0x3e, 0x00, 0x00, 0x80, 0x3c, 0x00, 0x00, 0x00, 0x3d,
  0x00, 0x00, 0x80, 0x3c, 0x00, 0x00, 0x00, 0x3e, 0x00, 0x00, 0x80, 0xbc,
  0x00, 0x00, 0x80, 0x3d, 0x00, 0x00, 0x80, 0xbd, 0x00, 0x00, 0x80, 0x3d,
  0x00, 0x00, 0x00, 0x00, 0x00, 0x00, 0x00, 0x00, 0x00, 0x00, 0x80, 0x3d,
  0x00, 0x00, 0x00, 0xbd, 0x00, 0x00, 0x00, 0x3e, 0x00, 0x00, 0x80, 0xbd,
  0x00, 0x00, 0x80, 0xbc, 0x00, 0x00, 0x80, 0xbc, 0x00, 0x00, 0x00, 0x00,
  0x00, 0x00, 0x80, 0xbd, 0x00, 0x00, 0x00, 0xbd, 0x00, 0x00, 0x00, 0x3d,
  0x00, 0x00, 0x00, 0xbd, 0x00, 0x00, 0x00, 0x3d, 0x00, 0x00, 0x00, 0xbd,
  0x00, 0x00, 0x00, 0x3d, 0x00, 0x00, 0x80, 0xbd, 0x00, 0x00, 0x80, 0xbd,
  0x00, 0x00, 0x80, 0xbd, 0x00, 0x00, 0x00, 0x3e, 0x00, 0x00, 0x00, 0xbd,
  0x00, 0x00, 0x00, 0x3e, 0x00, 0x00, 0x80, 0xbc, 0x00, 0x00, 0x00, 0x3e,
  0x00, 0x00, 0x80, 0xbd, 0x00, 0x00, 0x80, 0x3d, 0x00, 0x00, 0x00, 0x00,
  0x00, 0x00, 0x80, 0x3d, 0x00, 0x00, 0x80, 0x3d, 0x00, 0x00, 0x80, 0x3d,
  0x00, 0x00, 0x00, 0x00, 0x00, 0x00, 0x80, 0x3d, 0x00, 0x00, 0x00, 0x3e,
  0x00, 0x00, 0x80, 0x3d, 0x00, 0x00, 0x00, 0xbd, 0x00, 0x00, 0x80, 0x3d,
  0x00, 0x00, 0x00, 0x00, 0x00, 0x00, 0x80, 0x3d, 0x00, 0x00, 0x00, 0x3e,
  0x00, 0x00, 0x80, 0x3c, 0x00, 0x00, 0x80, 0xbd, 0x00, 0x00, 0x80, 0x3c,
  0x00, 0x00, 0x00, 0xbd, 0x00, 0x00, 0x80, 0x3d, 0x00, 0x00, 0x00, 0x3d,
  0x00, 0x00, 0x80, 0xbd, 0x00, 0x00, 0x00, 0x3e, 0x00, 0x00, 0x00, 0xbd,
  0x00, 0x00, 0x80, 0x3d, 0x00, 0x00, 0x80, 0x3c, 0x00, 0x00, 0x00, 0x00,
  0x00, 0x00, 0x80, 0xbc, 0x00, 0x00, 0x80, 0x3d, 0x00, 0x00, 0x80, 0xbc,
  0x00, 0x00, 0x80, 0xbc, 0x00, 0x00, 0x00, 0x00, 0x00, 0x00, 0x80, 0xbc,
  0x00, 0x00, 0x00, 0x00, 0x00, 0x00, 0x80, 0x3d, 0x00, 0x00, 0x80, 0xbd,
  0x00, 0x00, 0x80, 0xbd, 0x00, 0x00, 0x80, 0x3d, 0x00, 0x00, 0x00, 0xbd,
  0x00, 0x00, 0x00, 0x00, 0x00, 0x00, 0x00, 0x3d, 0x00, 0x00, 0x80, 0xbd,
  0x00, 0x00, 0x00, 0xbd, 0x00, 0x00, 0x80, 0x3d, 0x00, 0x00, 0x80, 0x3d,
  0x00, 0x00, 0x80, 0x3d, 0x00, 0x00, 0x00, 0x3e, 0x00, 0x00, 0x00, 0x00,
  0x00, 0x00, 0x00, 0x00, 0x00, 0x00, 0x00, 0x3e, 0x00, 0x00, 0x00, 0xbd,
  0x00, 0x00, 0x00, 0xbd, 0x00, 0x00, 0x00, 0x00, 0x00, 0x00, 0x80, 0x3d,
  0x00, 0x00, 0x00, 0xbd, 0x00, 0x00, 0x80, 0xbd, 0x00, 0x00, 0x80, 0x3d,
  0x00, 0x00, 0x80, 0x3d, 0x00, 0x00, 0x00, 0x3d, 0x00, 0x00, 0x00, 0x3d,
  0x00, 0x00, 0x00, 0xbd, 0x00, 0x00, 0x80, 0xbc, 0x00, 0x00, 0x00, 0xbd,
  0x00, 0x00, 0x80, 0xbd, 0x00, 0x00, 0x80, 0xbd, 0x00, 0x00, 0x00, 0x3d,
  0x00, 0x00, 0x80, 0x3d, 0x00, 0x00, 0x00, 0xbd, 0x00, 0x00, 0x80, 0xbd,
  0x00, 0x00, 0x80, 0x3d, 0x00, 0x00, 0x00, 0xbd, 0x00, 0x00, 0x00, 0x3e,
  0x00, 0x00, 0x80, 0xbd, 0x00, 0x00, 0x00, 0x00, 0x00, 0x00, 0x00, 0x3d,
  0x00, 0x00, 0x00, 0xbd, 0x00, 0x00, 0x80, 0x3c, 0x00, 0x00, 0x00, 0xbd,
  0x00, 0x00, 0x80, 0xbd, 0x00, 0x00, 0x80, 0x3d, 0x00, 0x00, 0x80, 0xbc,
  0x00, 0x00, 0x80, 0x3d, 0x00, 0x00, 0x00, 0xbd, 0x00, 0x00, 0x00, 0xbd,
  0x00, 0x00, 0x00, 0x00, 0x00, 0x00, 0x80, 0x3d, 0x00, 0x00, 0x80, 0x3d,
  0x00, 0x00, 0x00, 0x3e, 0x00, 0x00, 0x00, 0x3e, 0x00, 0x00, 0x00, 0x3e,
  0x00, 0x00, 0x00, 0x3d, 0x00, 0x00, 0x00, 0xbd, 0x00, 0x00, 0x80, 0xbd,
  0x00, 0x00, 0x00, 0x00, 0x00, 0x00, 0x80, 0x3d, 0x00, 0x00, 0x00, 0x3e,
  0x00, 0x00, 0x80, 0xbc, 0x00, 0x00, 0x00, 0x3e, 0x00, 0x00, 0x00, 0x3d,
  0x00, 0x00, 0x00, 0x00, 0x00, 0x00, 0x80, 0x3d, 0x00, 0x00, 0x80, 0x3c,
  0x00, 0x00, 0x00, 0x3d, 0x00, 0x00, 0x00, 0x3e, 0x00, 0x00, 0x80, 0xbd,
  0x00, 0x00, 0x80, 0xbd, 0x00, 0x00, 0x80, 0xbc, 0x00, 0x00, 0x80, 0x3d,
  0x00, 0x00, 0x80, 0x3d, 0x00, 0x00, 0x00, 0x3d, 0x00, 0x00, 0x00, 0x00,
  0x00, 0x00, 0x00, 0xbd, 0x00, 0x00, 0x80, 0x3d, 0x00, 0x00, 0x00, 0x3e,
  0x00, 0x00, 0x80, 0xbd, 0x00, 0x00, 0x00, 0x3e, 0x00, 0x00, 0x00, 0x00,
  0x00, 0x00, 0x00, 0x3d, 0x00, 0x00, 0x80, 0xbd, 0x00, 0x00, 0x00, 0xbd,
  0x00, 0x00, 0x80, 0x3d, 0x00, 0x00, 0x00, 0xbd, 0x00, 0x00, 0x80, 0x3d,
  0x00, 0x00, 0x80, 0xbd, 0x00, 0x00, 0x00, 0x00, 0x00, 0x00, 0x00, 0xbd,
  0x00, 0x00, 0x80, 0xbd, 0x00, 0x00, 0x80, 0xbc, 0x00, 0x00, 0x80, 0xbd,
  0x00, 0x00, 0x00, 0x3d, 0x00, 0x00, 0x80, 0x3d, 0x00, 0x00, 0x80, 0xbd,
  0x00, 0x00, 0x00, 0x3d, 0x00, 0x00, 0x80, 0xbd, 0x00, 0x00, 0x80, 0xbd,
  0x00, 0x00, 0x00, 0x3d, 0x00, 0x00, 0x80, 0x3d, 0x00, 0x00, 0x80, 0x3c,
  0x00, 0x00, 0x80, 0x3d, 0x00, 0x00, 0x80, 0x3c, 0x00, 0x00, 0x80, 0xbd,
  0x00, 0x00, 0x80, 0x3d, 0x00, 0x00, 0x80, 0x3d, 0x00, 0x00, 0x00, 0xbe,
  0x00, 0x00, 0x00, 0xbd, 0x00, 0x00, 0x80, 0x3c, 0x00, 0x00, 0x00, 0x3e,
  0x00, 0x00, 0x80, 0xbd, 0x00, 0x00, 0x80, 0xbd, 0x00, 0x00, 0x80, 0x3c,
  0x00, 0x00, 0x00, 0x3d, 0x00, 0x00, 0x80, 0xbd, 0x00, 0x00, 0x80, 0x3d,
  0x00, 0x00, 0x00, 0xbd, 0x00, 0x00, 0x00, 0xbd, 0x00, 0x00, 0x00, 0xbe,
  0x00, 0x00, 0x00, 0xbe, 0x00, 0x00, 0x80, 0x3d, 0x00, 0x00, 0x80, 0x3c,
  0x00, 0x00, 0x80, 0xbd, 0x00, 0x00, 0x00, 0x00, 0x00, 0x00, 0x00, 0xbd,
  0x00, 0x00, 0x00, 0x3e, 0x00, 0x00, 0x80, 0x3d, 0x00, 0x00, 0x00, 0x00,
  0x00, 0x00, 0x80, 0xbd, 0x00, 0x00, 0x80, 0x3c, 0x00, 0x00, 0x00, 0x3d,
  0x00, 0x00, 0x80, 0xbd, 0x00, 0x00, 0x80, 0xbd, 0x00, 0x00, 0x80, 0x3d,
  0x00, 0x00, 0x80, 0xbd, 0x00, 0x00, 0x80, 0x3d, 0x00, 0x00, 0x00, 0x00,
  0x00, 0x00, 0x80, 0xbd, 0x00, 0x00, 0x80, 0x3d, 0x00, 0x00, 0x00, 0x00,
  0x00, 0x00, 0x00, 0x00, 0x00, 0x00, 0x00, 0xbd, 0x00, 0x00, 0x00, 0x00,
  0x00, 0x00, 0x80, 0xbc, 0x00, 0x00, 0x80, 0x3d, 0x00, 0x00, 0x80, 0xbd,
  0x00, 0x00, 0x00, 0xbd, 0x00, 0x00, 0x80, 0xbd, 0x00, 0x00, 0x80, 0xbd,
  0x00, 0x00, 0x00, 0x00, 0x00, 0x00, 0x00, 0x3e, 0x00, 0x00, 0x80, 0x3c,
  0x00, 0x00, 0x00, 0x3e, 0x00, 0x00, 0x80, 0x3d, 0x00, 0x00, 0x00, 0x3d,
  0x00, 0x00, 0x00, 0xbd, 0x00, 0x00, 0x00, 0x00, 0x00, 0x00, 0x00, 0x3d,
  0x00, 0x00, 0x00, 0x00, 0x00, 0x00, 0x00, 0x3d, 0x00, 0x00, 0x00, 0x00,
  0x00, 0x00, 0x00, 0x3d, 0x00, 0x00, 0x80, 0x3d, 0x00, 0x00, 0x80, 0x3c,
  0x00, 0x00, 0x80, 0xbc, 0x00, 0x00, 0x00, 0x3e, 0x00, 0x00, 0x00, 0x3d,
  0x00, 0x00, 0x80, 0x3c, 0x00, 0x00, 0x80, 0xbd, 0x00, 0x00, 0x80, 0xbd,
  0x00, 0x00, 0x80, 0x3c, 0x00, 0x00, 0x80, 0x3d, 0x00, 0x00, 0x80, 0xbc,
  0x00, 0x00, 0x80, 0xbd, 0x00, 0x00, 0x80, 0xbc, 0x00, 0x00, 0x00, 0xbe,
  0x00, 0x00, 0x00, 0x00, 0x00, 0x00, 0x80, 0xbd, 0x00, 0x00, 0x00, 0x00,
  0x00, 0x00, 0x80, 0xbc, 0x00, 0x00, 0x80, 0x3c, 0x00, 0x00, 0x00, 0x00,
  0x00, 0x00, 0x80, 0xbd, 0x00, 0x00, 0x00, 0x00, 0x00, 0x00, 0x80, 0xbd,
  0x00, 0x00, 0x00, 0xbe, 0x00, 0x00, 0x00, 0x00, 0x00, 0x00, 0x00, 0x00,
  0x00, 0x00, 0x00, 0xbe, 0x00, 0x00, 0x00, 0x00, 0x00, 0x00, 0x80, 0x3d,
  0x00, 0x00, 0x80, 0x3d, 0x00, 0x00, 0x00, 0xbd, 0x00, 0x00, 0x80, 0x3d,
  0x00, 0x00, 0x00, 0xbe, 0x00, 0x00, 0x80, 0xbd, 0x00, 0x00, 0x00, 0x3e,
  0x00, 0x00, 0x00, 0x3d, 0x00, 0x00, 0x00, 0x00, 0x00, 0x00, 0x80, 0x3d,
  0x00, 0x00, 0x00, 0x00, 0x00, 0x00, 0x00, 0xbd, 0x00, 0x00, 0x80, 0x3d,
  0x00, 0x00, 0x80, 0xbc, 0x00, 0x00, 0x80, 0x3d, 0x00, 0x00, 0x80, 0xbd,
  0x00, 0x00, 0x80, 0x3c, 0x00, 0x00, 0x00, 0xbd, 0x00, 0x00, 0x00, 0x00,
  0x00, 0x00, 0x80, 0x3c, 0x00, 0x00, 0x00, 0xbd, 0x00, 0x00, 0x80, 0xbc,
  0x00, 0x00, 0x80, 0xbd, 0x00, 0x00, 0x80, 0xbd, 0x00, 0x00, 0x00, 0x3e,
  0x00, 0x00, 0x00, 0x00, 0x00, 0x00, 0x00, 0x3d, 0x00, 0x00, 0x00, 0x3d,
  0x00, 0x00, 0x00, 0x3d, 0x00, 0x00, 0x00, 0x3d, 0x00, 0x00, 0x80, 0x3d,
  0x00, 0x00, 0x80, 0xbc, 0x00, 0x00, 0x80, 0xbd, 0x00, 0x00, 0x00, 0x3d,
  0x00, 0x00, 0x00, 0x3d, 0x00, 0x00, 0x80, 0x3d, 0x00, 0x00, 0x80, 0x3d,
  0x00, 0x00, 0x00, 0x3d, 0x00, 0x00, 0x80, 0x3d, 0x00, 0x00, 0x80, 0x3d,
  0x00, 0x00, 0x80, 0x3d, 0x00, 0x00, 0x80, 0xbd, 0x00, 0x00, 0x00, 0x00,
  0x00, 0x00, 0x00, 0xbd, 0x00, 0x00, 0x80, 0xbd, 0x00, 0x00, 0x80, 0xbd,
  0x00, 0x00, 0x80, 0xbd, 0x00, 0x00, 0x80, 0xbc, 0x00, 0x00, 0x80, 0x3d,
  0x00, 0x00, 0x00, 0x00, 0x00, 0x00, 0x00, 0x3e, 0x00, 0x00, 0x00, 0x3d,
  0x00, 0x00, 0x00, 0xbd, 0x00, 0x00, 0x00, 0xbd, 0x00, 0x00, 0x00, 0x3d,
  0x00, 0x00, 0x00, 0xbe, 0x00, 0x00, 0x00, 0x3d, 0x00, 0x00, 0x00, 0x00,
  0x00, 0x00, 0x80, 0x3c, 0x00, 0x00, 0x80, 0xbc, 0x00, 0x00, 0x80, 0xbd,
  0x00, 0x00, 0x00, 0x00, 0x00, 0x00, 0x00, 0x00, 0x00, 0x00, 0x00, 0xbd,
  0x00, 0x00, 0x80, 0x3d, 0x00, 0x00, 0x00, 0x00, 0x00, 0x00, 0x80, 0xbd,
  0x00, 0x00, 0x00, 0x3d, 0x00, 0x00, 0x80, 0xbd, 0x00, 0x00, 0x00, 0xbe,
  0x00, 0x00, 0x00, 0xbe, 0x00, 0x00, 0x00, 0xbe, 0x00, 0x00, 0x00, 0x3d,
  0x00, 0x00, 0x80, 0xbd, 0x00, 0x00, 0x00, 0x3d, 0x00, 0x00, 0x80, 0xbc,
  0x00, 0x00, 0x00, 0xbd, 0x00, 0x00, 0x00, 0x3e, 0x00, 0x00, 0x80, 0x3c,
  0x00, 0x00, 0x80, 0xbc, 0x00, 0x00, 0x00, 0x3e, 0x00, 0x00, 0x80, 0x3d,
  0x00, 0x00, 0x80, 0xbd, 0x00, 0x00, 0x00, 0x00, 0x00, 0x00, 0x00, 0x00,
  0x00, 0x00, 0x00, 0x3d, 0x00, 0x00, 0x80, 0x3d, 0x00, 0x00, 0x00, 0x3e,
  0x00, 0x00, 0x80, 0x3d, 0x00, 0x00, 0x80, 0xbc, 0x00, 0x00, 0x80, 0x3c,
  0x00, 0x00, 0x80, 0x3d, 0x00, 0x00, 0x00, 0xbe, 0x00, 0x00, 0x80, 0xbd,
  0x00, 0x00, 0x80, 0xbd, 0x00, 0x00, 0x80, 0x3d, 0x00, 0x00, 0x80, 0xbd,
  0x00, 0x00, 0x00, 0x3d, 0x00, 0x00, 0x80, 0xbd, 0x00, 0x00, 0x00, 0x3e,
  0x00, 0x00, 0x80, 0xbc, 0x00, 0x00, 0x80, 0x3d, 0x00, 0x00, 0x00, 0xbd,
  0x00, 0x00, 0x80, 0xbd, 0x00, 0x00, 0x00, 0x3e, 0x00, 0x00, 0x00, 0x3e,
  0x00, 0x00, 0x00, 0xbd, 0x00, 0x00, 0x00, 0xbd, 0x00, 0x00, 0x80, 0xbd,
  0x00, 0x00, 0x80, 0xbd, 0x00, 0x00, 0x80, 0x3d, 0x00, 0x00, 0x80, 0xbd,
  0x00, 0x00, 0x00, 0x3d, 0x00, 0x00, 0x80, 0xbd, 0x00, 0x00, 0x00, 0x3e,
  0x00, 0x00, 0x80, 0x3d, 0x00, 0x00, 0x00, 0x00, 0x00, 0x00, 0x00, 0xbd,
  0x00, 0x00, 0x80, 0xbd, 0x00, 0x00, 0x80, 0xbd, 0x00, 0x00, 0x00, 0x3d,
  0x00, 0x00, 0x80, 0xbd, 0x00, 0x00, 0x80, 0x3d, 0x00, 0x00, 0x80, 0x3d,
  0x00, 0x00, 0x00, 0x00, 0x00, 0x00, 0x00, 0x3d, 0x00, 0x00, 0x80, 0xbd,
  0x00, 0x00, 0x00, 0xbd, 0x00, 0x00, 0x00, 0xbd, 0x00, 0x00, 0x00, 0x00,
  0x00, 0x00, 0x80, 0x3d, 0x00, 0x00, 0x00, 0xbd, 0x00, 0x00, 0x80, 0xbc,
  0x00, 0x00, 0x00, 0x3e, 0x00, 0x00, 0x00, 0xbd, 0x00, 0x00, 0x80, 0x3d,
  0x00, 0x00, 0x00, 0x00, 0x00, 0x00, 0x00, 0x00, 0x00, 0x00, 0x00, 0xbd,
  0x00, 0x00, 0x80, 0x3d, 0x00, 0x00, 0x80, 0x3d, 0x00, 0x00, 0x80, 0xbc,
  0x00, 0x00, 0x00, 0xbd, 0x00, 0x00, 0x00, 0x3d, 0x00, 0x00, 0x80, 0x3d,
  0x00, 0x00, 0x00, 0x3e, 0x00, 0x00, 0x00, 0x3d, 0x00, 0x00, 0x00, 0xbd,
  0x00, 0x00, 0x00, 0x3d, 0x00, 0x00, 0x00, 0xbd, 0x00, 0x00, 0x80, 0x3d,
  0x00, 0x00, 0x00, 0xbe, 0x00, 0x00, 0x00, 0x3e, 0x00, 0x00, 0x00, 0x3e,
  0x00, 0x00, 0x80, 0xbd, 0x00, 0x00, 0x80, 0xbd, 0x00, 0x00, 0x00, 0xbd,
  0x00, 0x00, 0x80, 0xbc, 0x00, 0x00, 0x80, 0xbd, 0x00, 0x00, 0x00, 0x00,
  0x00, 0x00, 0x80, 0x3d, 0x00, 0x00, 0x00, 0x00, 0x00, 0x00, 0x00, 0x3d,
  0x00, 0x00, 0x80, 0xbd, 0x00, 0x00, 0x80, 0xbd, 0x00, 0x00, 0x80, 0x3d,
  0x00, 0x00, 0x80, 0xbd, 0x00, 0x00, 0x80, 0xbd, 0x00, 0x00, 0x00, 0x3d,
  0x00, 0x00, 0x00, 0xbd, 0x00, 0x00, 0x80, 0x3d, 0x00, 0x00, 0x00, 0x00,
  0x00, 0x00, 0x80, 0xbd, 0x00, 0x00, 0x80, 0x3c, 0x00, 0x00, 0x00, 0x3e,
  0x00, 0x00, 0x00, 0x00, 0x00, 0x00, 0x00, 0x3e, 0x00, 0x00, 0x00, 0xbe,
  0x00, 0x00, 0x80, 0x3c, 0x00, 0x00, 0x80, 0x3d, 0x00, 0x00, 0x00, 0x00,
  0x00, 0x00, 0x00, 0x3d, 0x00, 0x00, 0x00, 0xbd, 0x00, 0x00, 0x00, 0x00,
  0x00, 0x00, 0x00, 0xbd, 0x00, 0x00, 0x80, 0xbd, 0x00, 0x00, 0x80, 0x3d,
  0x00, 0x00, 0x00, 0x00, 0x00, 0x00, 0x80, 0x3c, 0x00, 0x00, 0x80, 0x3d,
  0x00, 0x00, 0x00, 0xbd, 0x00, 0x00, 0x00, 0x00, 0x00, 0x00, 0x80, 0x3c,
  0x00, 0x00, 0x80, 0xbd, 0x00, 0x00, 0x00, 0x3d, 0x00, 0x00, 0x00, 0x00,
  0x00, 0x00, 0x80, 0x3d, 0x00, 0x00, 0x00, 0x3e, 0x00, 0x00, 0x80, 0xbc,
  0x00, 0x00, 0x00, 0x3e, 0x00, 0x00, 0x80, 0xbc, 0x00, 0x00, 0x00, 0xbe,
  0x00, 0x00, 0x80, 0x3d, 0x00, 0x00, 0x00, 0x3d, 0x00, 0x00, 0x80, 0x3d,
  0x00, 0x00, 0x80, 0xbc, 0x00, 0x00, 0x00, 0x00, 0x00, 0x00, 0x80, 0xbd,
  0x00, 0x00, 0x80, 0x3d, 0x00, 0x00, 0x00, 0xbe, 0x00, 0x00, 0x00, 0x00,
  0x00, 0x00, 0x00, 0x00, 0x00, 0x00, 0x80, 0x3d, 0x00, 0x00, 0x80, 0x3d,
  0x00, 0x00, 0x80, 0x3d, 0x00, 0x00, 0x80, 0x3d, 0x00, 0x00, 0x80, 0x3d,
  0x00, 0x00, 0x00, 0xbe, 0x00, 0x00, 0x80, 0x3d, 0x00, 0x00, 0x80, 0x3d,
  0x00, 0x00, 0x80, 0x3d, 0x00, 0x00, 0x80, 0xbd, 0x00, 0x00, 0x80, 0x3d,
  0x00, 0x00, 0x80, 0x3d, 0x00, 0x00, 0x80, 0xbd, 0x00, 0x00, 0x00, 0xbd,
  0x00, 0x00, 0x00, 0xbe, 0x00, 0x00, 0x80, 0xbd, 0x00, 0x00, 0x80, 0x3c,
  0x00, 0x00, 0x00, 0xbd, 0x00, 0x00, 0x80, 0x3d, 0x00, 0x00, 0x00, 0xbd,
  0x00, 0x00, 0x80, 0x3d, 0x00, 0x00, 0x00, 0x00, 0x00, 0x00, 0x80, 0x3d,
  0x00, 0x00, 0x80, 0xbd, 0x00, 0x00, 0x80, 0xbd, 0x00, 0x00, 0x80, 0xbd,
  0x00, 0x00, 0x00, 0xbd, 0x00, 0x00, 0x80, 0x3d, 0x00, 0x00, 0x00, 0x3e,
  0x00, 0x00, 0x00, 0xbd, 0x00, 0x00, 0x80, 0xbd, 0x00, 0x00, 0x00, 0xbd,
  0x00, 0x00, 0x80, 0x3c, 0x00, 0x00, 0x80, 0x3d, 0x00, 0x00, 0x80, 0x3c,
  0x00, 0x00, 0x00, 0x00, 0x00, 0x00, 0x80, 0x3c, 0x00, 0x00, 0x80, 0xbd,
  0x00, 0x00, 0x80, 0xbd, 0x00, 0x00, 0x80, 0x3d, 0x00, 0x00, 0x00, 0x00,
  0x00, 0x00, 0x00, 0xbe, 0x00, 0x00, 0x80, 0x3d, 0x00, 0x00, 0x00, 0xbd,
  0x00, 0x00, 0x80, 0x3d, 0x00, 0x00, 0x80, 0xbd, 0x00, 0x00, 0x80, 0xbd,
  0x00, 0x00, 0x00, 0x00, 0x00, 0x00, 0x00, 0xbe, 0x00, 0x00, 0x80, 0x3c,
  0x00, 0x00, 0x00, 0x3d, 0x00, 0x00, 0x00, 0x3d, 0x00, 0x00, 0x80, 0xbc,
  0x00, 0x00, 0x80, 0xbd, 0x00, 0x00, 0x80, 0x3d, 0x00, 0x00, 0x80, 0xbc,
  0x00, 0x00, 0x00, 0x3d, 0x00, 0x00, 0x00, 0x3d, 0x00, 0x00, 0x00, 0x3e,
  0x00, 0x00, 0x80, 0xbd, 0x00, 0x00, 0x80, 0x3d, 0x00, 0x00, 0x00, 0x00,
  0x00, 0x00, 0x80, 0x3d, 0x00, 0x00, 0x80, 0xbd, 0x00, 0x00, 0x00, 0x3d,
  0x00, 0x00, 0x80, 0x3d, 0x00, 0x00, 0x80, 0xbd, 0x00, 0x00, 0x00, 0x3d,
  0x00, 0x00, 0x00, 0x3e, 0x00, 0x00, 0x80, 0x3c, 0x00, 0x00, 0x00, 0x3d,
  0x00, 0x00, 0x00, 0x00, 0x00, 0x00, 0x80, 0xbd, 0x00, 0x00, 0x00, 0x3e,
  0x00, 0x00, 0x80, 0x3d, 0x00, 0x00, 0x00, 0x3d, 0x00, 0x00, 0x00, 0x3e,
  0x00, 0x00, 0x80, 0x3d, 0x00, 0x00, 0x80, 0x3d, 0x00, 0x00, 0x80, 0x3d,
  0x00, 0x00, 0x00, 0xbd, 0x00, 0x00, 0x80, 0x3d, 0x00, 0x00, 0x80, 0xbd,
  0x00, 0x00, 0x80, 0x3d, 0x00, 0x00, 0x00, 0x00, 0x00, 0x00, 0x00, 0x3d,
  0x00, 0x00, 0x00, 0xbd, 0x00, 0x00, 0x80, 0xbd, 0x00, 0x00, 0x00, 0xbd,
  0x00, 0x00, 0x80, 0x3d, 0x00, 0x00, 0x80, 0x3d, 0x00, 0x00, 0x80, 0x3d,
  0x00, 0x00, 0x00, 0xbd, 0x00, 0x00, 0x80, 0x3d, 0x00, 0x00, 0x80, 0x3d,
  0x00, 0x00, 0x00, 0x3e, 0x00, 0x00, 0x00, 0x3e, 0x00, 0x00, 0x00, 0xbd,
  0x00, 0x00, 0x80, 0xbd, 0x00, 0x00, 0x80, 0x3d, 0x00, 0x00, 0x80, 0xbd,
  0x00, 0x00, 0x00, 0x3e, 0x00, 0x00, 0x00, 0x3d, 0x00, 0x00, 0x80, 0x3d,
  0x00, 0x00, 0x80, 0xbd, 0x00, 0x00, 0x00, 0x00, 0x00, 0x00, 0x80, 0xbc,
  0x00, 0x00, 0x00, 0x00, 0x00, 0x00, 0x00, 0x3d, 0x00, 0x00, 0x80, 0xbc,
  0x00, 0x00, 0x80, 0xbd, 0x00, 0x00, 0x80, 0x3d, 0x00, 0x00, 0x80, 0x3d,
  0x00, 0x00, 0x00, 0xbd, 0x00, 0x00, 0x00, 0xbe, 0x00, 0x00, 0x00, 0x3e,
  0x00, 0x00, 0x00, 0x3e, 0x00, 0x00, 0x80, 0x3d, 0x00, 0x00, 0x00, 0xbd,
  0x00, 0x00, 0x80, 0xbd, 0x00, 0x00, 0x80, 0x3d, 0x00, 0x00, 0x00, 0xbd,
  0x00, 0x00, 0x80, 0xbc, 0x00, 0x00, 0x00, 0x00, 0x00, 0x00, 0x80, 0x3d,
  0x00, 0x00, 0x80, 0x3d, 0x00, 0x00, 0x00, 0x00, 0x00, 0x00, 0x80, 0x3d,
  0x00, 0x00, 0x80, 0x3c, 0x00, 0x00, 0x00, 0x00, 0x00, 0x00, 0x00, 0x3d,
  0x00, 0x00, 0x80, 0xbd, 0x00, 0x00, 0x80, 0xbd, 0x00, 0x00, 0x00, 0x00,
  0x00, 0x00, 0x80, 0x3d, 0x00, 0x00, 0x80, 0xbd, 0x00, 0x00, 0x00, 0x3e,
  0x00, 0x00, 0x00, 0x3e, 0x00, 0x00, 0x80, 0x3d, 0x00, 0x00, 0x00, 0x00,
  0x00, 0x00, 0x80, 0x3d, 0x00, 0x00, 0x80, 0x3d, 0x00, 0x00, 0x80, 0xbd,
  0x00, 0x00, 0x80, 0x3d, 0x00, 0x00, 0x80, 0x3d, 0x00, 0x00, 0x00, 0xbd,
  0x00, 0x00, 0x00, 0xbd, 0x00, 0x00, 0x00, 0x3d, 0x00, 0x00, 0x80, 0x3d,
  0x00, 0x00, 0x00, 0xbe, 0x00, 0x00, 0x00, 0x3d, 0x00, 0x00, 0x00, 0x00,
  0x00, 0x00, 0x80, 0x3d, 0x00, 0x00, 0x00, 0x00, 0x00, 0x00, 0x00, 0x3d,
  0x00, 0x00, 0x00, 0xbe, 0x00, 0x00, 0x00, 0x3d, 0x00, 0x00, 0x80, 0xbc,
  0x00, 0x00, 0x80, 0xbd, 0x00, 0x00, 0x00, 0x3e, 0x00, 0x00, 0x80, 0x3d,
  0x00, 0x00, 0x00, 0xbd, 0x00, 0x00, 0x80, 0x3d, 0x00, 0x00, 0x80, 0x3d,
  0x00, 0x00, 0x00, 0xbd, 0x00, 0x00, 0x80, 0x3d, 0x00, 0x00, 0x00, 0xbd,
  0x00, 0x00, 0x00, 0x00, 0x00, 0x00, 0x80, 0xbc, 0x00, 0x00, 0x00, 0x3e,
  0x00, 0x00, 0x80, 0x3d, 0x00, 0x00, 0x80, 0xbc, 0x00, 0x00, 0x80, 0xbd,
  0x00, 0x00, 0x00, 0x3d, 0x00, 0x00, 0x80, 0xbd, 0x00, 0x00, 0x80, 0x3d,
  0x00, 0x00, 0x00, 0x00, 0x00, 0x00, 0x00, 0x3d, 0x00, 0x00, 0x80, 0xbd,
  0x00, 0x00, 0x00, 0xbe, 0x00, 0x00, 0x80, 0x3d, 0x00, 0x00, 0x80, 0xbd,
  0x00, 0x00, 0x80, 0x3d, 0x00, 0x00, 0x80, 0x3c, 0x00, 0x00, 0x80, 0x3d,
  0x00, 0x00, 0x00, 0xbe, 0x00, 0x00, 0x00, 0x3d, 0x00, 0x00, 0x80, 0x3d,
  0x00, 0x00, 0x80, 0x3d, 0x00, 0x00, 0x00, 0xbd, 0x00, 0x00, 0x80, 0xbc,
  0x00, 0x00, 0x00, 0xbe, 0x00, 0x00, 0x80, 0xbd, 0x00, 0x00, 0x80, 0xbc,
  0x00, 0x00, 0x80, 0xbd, 0x00, 0x00, 0x80, 0x3d, 0x00, 0x00, 0x00, 0x3d,
  0x00, 0x00, 0x00, 0xbd, 0x00, 0x00, 0x80, 0x3c, 0x00, 0x00, 0x00, 0x3d,
  0x00, 0x00, 0x00, 0x00, 0x00, 0x00, 0x80, 0x3d, 0x00, 0x00, 0x80, 0xbd,
  0x00, 0x00, 0x00, 0xbd, 0x00, 0x00, 0x00, 0x3d, 0x00, 0x00, 0x80, 0xbd,
  0x00, 0x00, 0x00, 0x00, 0x00, 0x00, 0x00, 0x00, 0x00, 0x00, 0x00, 0x3d,
  0x00, 0x00, 0x80, 0x3d, 0x00, 0x00, 0x00, 0x3e, 0x00, 0x00, 0x00, 0x3d,
  0x00, 0x00, 0x80, 0xbd, 0x00, 0x00, 0x80, 0x3d, 0x00, 0x00, 0x00, 0x00,
  0x00, 0x00, 0x00, 0x00, 0x00, 0x00, 0x00, 0x00, 0x00, 0x00, 0x00, 0xbe,
  0x00, 0x00, 0x80, 0x3d, 0x00, 0x00, 0x80, 0xbd, 0x00, 0x00, 0x00, 0x3e,
  0x00, 0x00, 0x00, 0x3d, 0x00, 0x00, 0x00, 0x00, 0x00, 0x00, 0x80, 0x3d,
  0x00, 0x00, 0x00, 0x3d, 0x00, 0x00, 0x00, 0xbd, 0x00, 0x00, 0x00, 0x3d,
  0x00, 0x00, 0x00, 0x3e, 0x00, 0x00, 0x80, 0xbd, 0x00, 0x00, 0x00, 0xbd,
  0x00, 0x00, 0x00, 0xbd, 0x00, 0x00, 0x80, 0xbd, 0x00, 0x00, 0x80, 0xbd,
  0x00, 0x00, 0x00, 0xbe, 0x00, 0x00, 0x80, 0x3d, 0x00, 0x00, 0x00, 0xbe,
  0x00, 0x00, 0x00, 0xbe, 0x00, 0x00, 0x00, 0xbe, 0x00, 0x00, 0x00, 0xbd,
  0x00, 0x00, 0x80, 0xbd, 0x00, 0x00, 0x00, 0x3d, 0x00, 0x00, 0x00, 0xbd,
  0x00, 0x00, 0x80, 0xbd, 0x00, 0x00, 0x00, 0x3d, 0x00, 0x00, 0x80, 0xbd,
  0x00, 0x00, 0x00, 0xbd, 0x00, 0x00, 0x00, 0x3e, 0x00, 0x00, 0x80, 0xbd,
  0x00, 0x00, 0x80, 0xbd, 0x00, 0x00, 0x80, 0x3d, 0x00, 0x00, 0x00, 0xbe,
  0x00, 0x00, 0x80, 0x3d, 0x00, 0x00, 0x80, 0xbd, 0x00, 0x00, 0x00, 0x00,
  0x00, 0x00, 0x00, 0x3d, 0x00, 0x00, 0x80, 0xbc, 0x00, 0x00, 0x00, 0xbe,
  0x00, 0x00, 0x00, 0x3d, 0x00, 0x00, 0x00, 0xbd, 0x00, 0x00, 0x80, 0x3d,
  0x00, 0x00, 0x00, 0x00, 0x00, 0x00, 0x80, 0x3d, 0x00, 0x00, 0x80, 0xbd,
  0x00, 0x00, 0x80, 0xbd, 0x00, 0x00, 0x00, 0x00, 0x00, 0x00, 0x00, 0xbe,
  0x00, 0x00, 0x00, 0xbd, 0x00, 0x00, 0x80, 0x3d, 0x00, 0x00, 0x00, 0x3e,
  0x00, 0x00, 0x80, 0x3c, 0x00, 0x00, 0x80, 0x3d, 0x00, 0x00, 0x80, 0xbd,
  0x00, 0x00, 0x00, 0x3d, 0x00, 0x00, 0x80, 0xbc, 0x00, 0x00, 0x00, 0x00,
  0x00, 0x00, 0x80, 0xbd, 0x00, 0x00, 0x80, 0x3d, 0x00, 0x00, 0x80, 0xbd,
  0x00, 0x00, 0x00, 0xbd, 0x00, 0x00, 0x80, 0x3d, 0x00, 0x00, 0x80, 0x3c,
  0x00, 0x00, 0x00, 0xbd, 0x00, 0x00, 0x80, 0xbd, 0x00, 0x00, 0x80, 0xbd,
  0x00, 0x00, 0x80, 0x3d, 0x00, 0x00, 0x80, 0x3d, 0x00, 0x00, 0x00, 0x00,
  0x00, 0x00, 0x00, 0x3d, 0x00, 0x00, 0x80, 0xbd, 0x00, 0x00, 0x00, 0x3d,
  0x00, 0x00, 0x00, 0xbe, 0x00, 0x00, 0x00, 0x00, 0x00, 0x00, 0x00, 0xbd,
  0x00, 0x00, 0x00, 0x3d, 0x00, 0x00, 0x80, 0xbd, 0x00, 0x00, 0x80, 0x3c,
  0x00, 0x00, 0x80, 0xbd, 0x00, 0x00, 0x00, 0x3e, 0x00, 0x00, 0x80, 0x3d,
  0x00, 0x00, 0x00, 0x00, 0x00, 0x00, 0x00, 0x3e, 0x00, 0x00, 0x00, 0x00,
  0x00, 0x00, 0x80, 0xbd, 0x00, 0x00, 0x00, 0x00, 0x00, 0x00, 0x80, 0x3d,
  0x00, 0x00, 0x80, 0xbd, 0x00, 0x00, 0x80, 0xbd, 0x00, 0x00, 0x80, 0xbd,
  0x00, 0x00, 0x00, 0x00, 0x00, 0x00, 0x00, 0xbd, 0x00, 0x00, 0x80, 0x3d,
  0x00, 0x00, 0x80, 0x3d, 0x00, 0x00, 0x00, 0xbd, 0x00, 0x00, 0x00, 0xbe,
  0x00, 0x00, 0x80, 0xbc, 0x00, 0x00, 0x80, 0xbd, 0x00, 0x00, 0x80, 0x3d,
  0x00, 0x00, 0x80, 0xbd, 0x00, 0x00, 0x80, 0x3d, 0x00, 0x00, 0x80, 0x3c,
  0x00, 0x00, 0x00, 0x3e, 0x00, 0x00, 0x80, 0xbc, 0x00, 0x00, 0x80, 0x3c,
  0x00, 0x00, 0x80, 0xbd, 0x00, 0x00, 0x80, 0xbd, 0x00, 0x00, 0x00, 0x3e,
  0x00, 0x00, 0x00, 0x3e, 0x00, 0x00, 0x00, 0xbe, 0x00, 0x00, 0x80, 0xbd,
  0x00, 0x00, 0x00, 0x3d, 0x00, 0x00, 0x00, 0x00, 0x00, 0x00, 0x80, 0x3d,
  0x00, 0x00, 0x00, 0x3e, 0x00, 0x00, 0x00, 0xbd, 0x00, 0x00, 0x00, 0xbe,
  0x00, 0x00, 0x80, 0x3d, 0x00, 0x00, 0x80, 0x3d, 0x00, 0x00, 0x00, 0x3e,
  0x00, 0x00, 0x00, 0xbd, 0x00, 0x00, 0x00, 0xbd, 0x00, 0x00, 0x80, 0xbd,
  0x00, 0x00, 0x80, 0xbd, 0x00, 0x00, 0x00, 0x3e, 0x00, 0x00, 0x80, 0x3c,
  0x00, 0x00, 0x80, 0xbd, 0x00, 0x00, 0x00, 0xbd, 0x00, 0x00, 0x00, 0xbd,
  0x00, 0x00, 0x00, 0xbd, 0x00, 0x00, 0x00, 0xbd, 0x00, 0x00, 0x00, 0x00,
  0x00, 0x00, 0x00, 0xbd, 0x00, 0x00, 0x80, 0xbd, 0x00, 0x00, 0x80, 0xbd,
  0x00, 0x00, 0x80, 0xbd, 0x00, 0x00, 0x80, 0x3d, 0x00, 0x00, 0x80, 0x3d,
  0x00, 0x00, 0x80, 0x3d, 0x00, 0x00, 0x00, 0x3d, 0x00, 0x00, 0x80, 0xbd,
  0x00, 0x00, 0x80, 0x3d, 0x00, 0x00, 0x00, 0xbe, 0x00, 0x00, 0x80, 0x3c,
  0x00, 0x00, 0x00, 0x00, 0x00, 0x00, 0x00, 0x00, 0x00, 0x00, 0x80, 0x3d,
  0x00, 0x00, 0x00, 0x3d, 0x00, 0x00, 0x00, 0x3e, 0x00, 0x00, 0x00, 0xbd,
  0x00, 0x00, 0x80, 0x3d, 0x00, 0x00, 0x00, 0x3e, 0x00, 0x00, 0x80, 0x3c,
  0x00, 0x00, 0x80, 0xbd, 0x00, 0x00, 0x00, 0xbe, 0x00, 0x00, 0x00, 0xbd,
  0x00, 0x00, 0x00, 0x3d, 0x00, 0x00, 0x00, 0xbd, 0x00, 0x00, 0x80, 0xbd,
  0x00, 0x00, 0x00, 0x3e, 0x00, 0x00, 0x00, 0x3d, 0x00, 0x00, 0x80, 0x3d,
  0x00, 0x00, 0x80, 0x3d, 0x00, 0x00, 0x00, 0x3d, 0x00, 0x00, 0x00, 0xbd,
  0x00, 0x00, 0x00, 0xbd, 0x00, 0x00, 0x80, 0x3d, 0x00, 0x00, 0x80, 0xbd,
  0x00, 0x00, 0x00, 0xbe, 0x00, 0x00, 0x80, 0x3d, 0x00, 0x00, 0x80, 0x3c,
  0x00, 0x00, 0x00, 0x3e, 0x00, 0x00, 0x00, 0x3d, 0x00, 0x00, 0x80, 0xbd,
  0x00, 0x00, 0x80, 0xbd, 0x00, 0x00, 0x00, 0x00, 0x00, 0x00, 0x00, 0x3e,
  0x00, 0x00, 0x00, 0xbd, 0x00, 0x00, 0x00, 0x3d, 0x00, 0x00, 0x00, 0x3e,
  0x00, 0x00, 0x00, 0x00, 0x00, 0x00, 0x00, 0x3d, 0x00, 0x00, 0x80, 0x3d,
  0x00, 0x00, 0x80, 0xbc, 0x00, 0x00, 0x80, 0x3d, 0x00, 0x00, 0x80, 0xbd,
  0x00, 0x00, 0x00, 0x00, 0x00, 0x00, 0x00, 0x3d, 0x00, 0x00, 0x00, 0x00,
  0x00, 0x00, 0x00, 0xbe, 0x00, 0x00, 0x00, 0x3e, 0x00, 0x00, 0x80, 0xbd,
  0x00, 0x00, 0x80, 0x3d, 0x00, 0x00, 0x80, 0xbd, 0x00, 0x00, 0x80, 0xbd,
  0x00, 0x00, 0x00, 0x00, 0x00, 0x00, 0x80, 0x3c, 0x00, 0x00, 0x80, 0x3d,
  0x00, 0x00, 0x00, 0xbe, 0x00, 0x00, 0x00, 0x3e, 0x00, 0x00, 0x80, 0xbd,
  0x00, 0x00, 0x00, 0x00, 0x00, 0x00, 0x00, 0x00, 0x00, 0x00, 0x80, 0x3d,
  0x00, 0x00, 0x00, 0x00, 0x00, 0x00, 0x80, 0xbc, 0x00, 0x00, 0x80, 0xbc,
  0x00, 0x00, 0x00, 0x3e, 0x00, 0x00, 0x80, 0xbd, 0x00, 0x00, 0x80, 0xbd,
  0x00, 0x00, 0x00, 0x00, 0x00, 0x00, 0x80, 0xbd, 0x00, 0x00, 0x80, 0xbd,
  0x00, 0x00, 0x00, 0x3e, 0x00, 0x00, 0x80, 0xbc, 0x00, 0x00, 0x00, 0x3d,
  0x00, 0x00, 0x00, 0x00, 0x00, 0x00, 0x80, 0x3d, 0x00, 0x00, 0x80, 0x3d,
  0x00, 0x00, 0x80, 0xbd, 0x00, 0x00, 0x00, 0x00, 0x00, 0x00, 0x80, 0xbd,
  0x00, 0x00, 0x80, 0xbd, 0x00, 0x00, 0x00, 0xbd, 0x00, 0x00, 0x80, 0x3d,
  0x00, 0x00, 0x80, 0xbd, 0x00, 0x00, 0x00, 0x00, 0x00, 0x00, 0x80, 0x3d,
  0x00, 0x00, 0x00, 0x00, 0x00, 0x00, 0x00, 0x00, 0x00, 0x00, 0x00, 0x3d,
  0x00, 0x00, 0x00, 0x00, 0x00, 0x00, 0x00, 0x3e, 0x00, 0x00, 0x00, 0x00,
  0x00, 0x00, 0x00, 0xbd, 0x00, 0x00, 0x80, 0x3c, 0x00, 0x00, 0x00, 0xbe,
  0x00, 0x00, 0x80, 0x3d, 0x00, 0x00, 0x00, 0x3e, 0x00, 0x00, 0x00, 0xbd,
  0x00, 0x00, 0x80, 0x3d, 0x00, 0x00, 0x80, 0xbc, 0x00, 0x00, 0x00, 0x3d,
  0x00, 0x00, 0x00, 0x3d, 0x00, 0x00, 0x00, 0x00, 0x00, 0x00, 0x80, 0x3d,
  0x00, 0x00, 0x00, 0xbd, 0x00, 0x00, 0x80, 0x3d, 0x00, 0x00, 0x00, 0xbd,
  0x00, 0x00, 0x80, 0xbd, 0x00, 0x00, 0x80, 0x3d, 0x00, 0x00, 0x80, 0x3d,
  0x00, 0x00, 0x80, 0x3d, 0x00, 0x00, 0x80, 0xbc, 0x00, 0x00, 0x00, 0xbd,
  0x00, 0x00, 0x00, 0x3d, 0x00, 0x00, 0x00, 0xbd, 0x00, 0x00, 0x80, 0xbd,
  0x00, 0x00, 0x00, 0xbe, 0x00, 0x00, 0x00, 0xbd, 0x00, 0x00, 0x00, 0x3d,
  0x00, 0x00, 0x80, 0xbd, 0x00, 0x00, 0x80, 0xbc, 0x00, 0x00, 0x00, 0xbd,
  0x00, 0x00, 0x80, 0xbc, 0x00, 0x00, 0x80, 0xbc, 0x00, 0x00, 0x80, 0xbc,
  0x00, 0x00, 0x80, 0x3d, 0x00, 0x00, 0x80, 0x3d, 0x00, 0x00, 0x00, 0x3d,
  0x00, 0x00, 0x80, 0x3d, 0x00, 0x00, 0x80, 0x3d, 0x00, 0x00, 0x80, 0xbd,
  0x00, 0x00, 0x80, 0x3d, 0x00, 0x00, 0x00, 0xbd, 0x00, 0x00, 0x00, 0x3e,
  0x00, 0x00, 0x80, 0xbd, 0x00, 0x00, 0x80, 0xbc, 0x00, 0x00, 0x00, 0x00,
  0x00, 0x00, 0x00, 0xbd, 0x00, 0x00, 0x00, 0x00, 0x00, 0x00, 0x80, 0xbd,
  0x00, 0x00, 0x00, 0xbe, 0x00, 0x00, 0x80, 0x3c, 0x00, 0x00, 0x80, 0xbc,
  0x00, 0x00, 0x00, 0x3d, 0x00, 0x00, 0x00, 0x3e, 0x00, 0x00, 0x00, 0xbe,
  0x00, 0x00, 0x00, 0xbd, 0x00, 0x00, 0x00, 0xbd, 0x00, 0x00, 0x80, 0x3d,
  0x00, 0x00, 0x80, 0xbd, 0x00, 0x00, 0x00, 0x3e, 0x00, 0x00, 0x80, 0xbd,
  0x00, 0x00, 0x00, 0x3d, 0x00, 0x00, 0x00, 0xbd, 0x00, 0x00, 0x80, 0x3d,
  0x00, 0x00, 0x00, 0x3e, 0x00, 0x00, 0x00, 0x3d, 0x00, 0x00, 0x80, 0xbd,
  0x00, 0x00, 0x00, 0x3d, 0x00, 0x00, 0x00, 0xbe, 0x00, 0x00, 0x80, 0xbd,
  0x00, 0x00, 0x00, 0x00, 0x00, 0x00, 0x80, 0xbc, 0x00, 0x00, 0x00, 0x3e,
  0x00, 0x00, 0x00, 0xbe, 0x00, 0x00, 0x80, 0xbc, 0x00, 0x00, 0x80, 0x3d,
  0x00, 0x00, 0x80, 0xbd, 0x00, 0x00, 0x80, 0xbc, 0x00, 0x00, 0x80, 0x3c,
  0x00, 0x00, 0x80, 0xbd, 0x00, 0x00, 0x00, 0xbd, 0x00, 0x00, 0x80, 0x3d,
  0x00, 0x00, 0x00, 0x3d, 0x00, 0x00, 0x80, 0xbd, 0x00, 0x00, 0x80, 0xbd,
  0x00, 0x00, 0x80, 0xbd, 0x00, 0x00, 0x80, 0xbd, 0x00, 0x00, 0x80, 0x3d,
  0x00, 0x00, 0x00, 0x00, 0x00, 0x00, 0x00, 0xbd, 0x00, 0x00, 0x80, 0xbc,
  0x00, 0x00, 0x00, 0x3d, 0x00, 0x00, 0x80, 0x3c, 0x00, 0x00, 0x80, 0xbd,
  0x00, 0x00, 0x80, 0x3d, 0x00, 0x00, 0x80, 0x3d, 0x00, 0x00, 0x80, 0xbc,
  0x00, 0x00, 0x80, 0xbd, 0x00, 0x00, 0x80, 0x3c, 0x00, 0x00, 0x80, 0x3d,
  0x00, 0x00, 0x00, 0xbd, 0x00, 0x00, 0x00, 0x3d, 0x00, 0x00, 0x00, 0x00,
  0x00, 0x00, 0x80, 0xbc, 0x00, 0x00, 0x00, 0xbd, 0x00, 0x00, 0x00, 0xbe,
  0x00, 0x00, 0x00, 0xbd, 0x00, 0x00, 0x80, 0xbd, 0x00, 0x00, 0x80, 0xbd,
  0x00, 0x00, 0x00, 0x00, 0x00, 0x00, 0x00, 0xbe, 0x00, 0x00, 0x00, 0x3e,
  0x00, 0x00, 0x80, 0x3c, 0x00, 0x00, 0x80, 0xbc, 0x00, 0x00, 0x00, 0x00,
  0x00, 0x00, 0x00, 0x3d, 0x00, 0x00, 0x80, 0x3d, 0x00, 0x00, 0x80, 0x3d,
  0x00, 0x00, 0x00, 0x3d, 0x00, 0x00, 0x80, 0xbd, 0x00, 0x00, 0x00, 0x00,
  0x00, 0x00, 0x80, 0xbd, 0x00, 0x00, 0x00, 0xbd, 0x00, 0x00, 0x00, 0xbe,
  0x00, 0x00, 0x80, 0xbd, 0x00, 0x00, 0x00, 0x3d, 0x00, 0x00, 0x00, 0xbe,
  0x00, 0x00, 0x00, 0x00, 0x00, 0x00, 0x00, 0x3d, 0x00, 0x00, 0x80, 0xbd,
  0x00, 0x00, 0x80, 0xbd, 0x00, 0x00, 0x80, 0x3d, 0x00, 0x00, 0x00, 0x3d,
  0x00, 0x00, 0x00, 0x3d, 0x00, 0x00, 0x80, 0x3d, 0x00, 0x00, 0x00, 0x00,
  0x00, 0x00, 0x00, 0x00, 0x00, 0x00, 0x80, 0xbd, 0x00, 0x00, 0x00, 0xbd,
  0x00, 0x00, 0x00, 0xbd, 0x00, 0x00, 0x00, 0xbd, 0x00, 0x00, 0x80, 0xbc,
  0x00, 0x00, 0x80, 0x3c, 0x00, 0x00, 0x00, 0xbd, 0x00, 0x00, 0x00, 0xbd,
  0x00, 0x00, 0x00, 0xbe, 0x00, 0x00, 0x80, 0xbd, 0x00, 0x00, 0x80, 0x3d,
  0x00, 0x00, 0x80, 0x3d, 0x00, 0x00, 0x00, 0x3d, 0x00, 0x00, 0x80, 0x3d,
  0x00, 0x00, 0x80, 0xbd, 0x00, 0x00, 0x00, 0x3e, 0x00, 0x00, 0x80, 0x3d,
  0x00, 0x00, 0x80, 0x3d, 0x00, 0x00, 0x80, 0x3d, 0x00, 0x00, 0x00, 0xbe,
  0x00, 0x00, 0x80, 0x3d, 0x00, 0x00, 0x00, 0x3e, 0x00, 0x00, 0x00, 0x00,
  0x00, 0x00, 0x00, 0x00, 0x00, 0x00, 0x80, 0xbd, 0x00, 0x00, 0x00, 0x00,
  0x00, 0x00, 0x00, 0x00, 0x00, 0x00, 0x00, 0x00, 0x00, 0x00, 0x00, 0xbd,
  0x00, 0x00, 0x00, 0x00, 0x00, 0x00, 0x00, 0x3e, 0x00, 0x00, 0x00, 0x3d,
  0x00, 0x00, 0x80, 0xbd, 0x00, 0x00, 0x00, 0x3d, 0x00, 0x00, 0x80, 0x3d,
  0x00, 0x00, 0x80, 0x3c, 0x00, 0x00, 0x80, 0x3c, 0x00, 0x00, 0x00, 0x3d,
  0x00, 0x00, 0x00, 0x3d, 0x00, 0x00, 0x80, 0xbd, 0x00, 0x00, 0x80, 0x3d,
  0x00, 0x00, 0x80, 0xbd, 0x00, 0x00, 0x80, 0xbc, 0x00, 0x00, 0x80, 0x3d,
  0x00, 0x00, 0x80, 0x3d, 0x00, 0x00, 0x80, 0x3d, 0x00, 0x00, 0x00, 0xbe,
  0x00, 0x00, 0x80, 0x3d, 0x00, 0x00, 0x00, 0xbe, 0x00, 0x00, 0x80, 0x3d,
  0x00, 0x00, 0x00, 0xbd, 0x00, 0x00, 0x00, 0x3e, 0x00, 0x00, 0x80, 0x3d,
  0x00, 0x00, 0x00, 0x3d, 0x00, 0x00, 0x00, 0x3e, 0x00, 0x00, 0x80, 0x3d,
  0x00, 0x00, 0x80, 0x3d, 0x00, 0x00, 0x80, 0xbd, 0x00, 0x00, 0x80, 0xbd,
  0x00, 0x00, 0x00, 0x3d, 0x00, 0x00, 0x80, 0x3d, 0x00, 0x00, 0x00, 0x3d,
  0x00, 0x00, 0x80, 0x3d, 0x00, 0x00, 0x80, 0xbd, 0x00, 0x00, 0x80, 0xbc,
  0x00, 0x00, 0x80, 0x3d, 0x00, 0x00, 0x00, 0xbd, 0x00, 0x00, 0x80, 0xbd,
  0x00, 0x00, 0x00, 0xbd, 0x00, 0x00, 0x00, 0xbd, 0x00, 0x00, 0x00, 0x3d,
  0x00, 0x00, 0x80, 0xbd, 0x00, 0x00, 0x00, 0x3d, 0x00, 0x00, 0x00, 0x3d,
  0x00, 0x00, 0x80, 0x3d, 0x00, 0x00, 0x00, 0xbd, 0x00, 0x00, 0x00, 0x00,
  0x00, 0x00, 0x80, 0x3c, 0x00, 0x00, 0x00, 0xbe, 0x00, 0x00, 0x80, 0x3d,
  0x00, 0x00, 0x00, 0x3e, 0x00, 0x00, 0x00, 0x3e, 0x00, 0x00, 0x00, 0xbd,
  0x00, 0x00, 0x80, 0x3c, 0x00, 0x00, 0x00, 0x3e, 0x00, 0x00, 0x00, 0x3d,
  0x00, 0x00, 0x00, 0x3d, 0x00, 0x00, 0x80, 0x3d, 0x00, 0x00, 0x80, 0xbc,
  0x00, 0x00, 0x00, 0x3e, 0x00, 0x00, 0x80, 0x3c, 0x00, 0x00, 0x80, 0xbd,
  0x00, 0x00, 0x80, 0x3d, 0x00, 0x00, 0x00, 0x00, 0x00, 0x00, 0x80, 0xbd,
  0x00, 0x00, 0x80, 0xbd, 0x00, 0x00, 0x80, 0x3d, 0x00, 0x00, 0x80, 0xbd,
  0x00, 0x00, 0x80, 0x3d, 0x00, 0x00, 0x00, 0x3e, 0x00, 0x00, 0x80, 0xbc,
  0x00, 0x00, 0x80, 0x3c, 0x00, 0x00, 0x00, 0x3e, 0x00, 0x00, 0x80, 0xbd,
  0x00, 0x00, 0x80, 0xbd, 0x00, 0x00, 0x80, 0x3d, 0x00, 0x00, 0x00, 0xbd,
  0x00, 0x00, 0x00, 0x00, 0x00, 0x00, 0x00, 0xbd, 0x00, 0x00, 0x80, 0x3d,
  0x00, 0x00, 0x80, 0xbc, 0x00, 0x00, 0x80, 0xbd, 0x00, 0x00, 0x00, 0x3e,
  0x00, 0x00, 0x80, 0x3d, 0x00, 0x00, 0x00, 0x3e, 0x00, 0x00, 0x00, 0x3d,
  0x00, 0x00, 0x00, 0x00, 0x00, 0x00, 0x00, 0xbd, 0x00, 0x00, 0x00, 0x00,
  0x00, 0x00, 0x80, 0xbd, 0x00, 0x00, 0x00, 0xbd, 0x00, 0x00, 0x00, 0x3e,
  0x00, 0x00, 0x80, 0x3d, 0x00, 0x00, 0x80, 0x3c, 0x00, 0x00, 0x80, 0x3d,
  0x00, 0x00, 0x80, 0xbd, 0x00, 0x00, 0x80, 0x3d, 0x00, 0x00, 0x80, 0x3d,
  0x00, 0x00, 0x00, 0x00, 0x00, 0x00, 0x80, 0xbd, 0x00, 0x00, 0x00, 0x00,
  0x00, 0x00, 0x80, 0xbd, 0x00, 0x00, 0x00, 0x3d, 0x00, 0x00, 0x80, 0xbd,
  0x00, 0x00, 0x00, 0xbd, 0x00, 0x00, 0x80, 0x3d, 0x00, 0x00, 0x00, 0x3e,
  0x00, 0x00, 0x80, 0xbc, 0x00, 0x00, 0x80, 0xbc, 0x00, 0x00, 0x00, 0x3d,
  0x00, 0x00, 0x80, 0xbd, 0x00, 0x00, 0x00, 0xbe, 0x00, 0x00, 0x80, 0xbc,
  0x00, 0x00, 0x00, 0xbd, 0x00, 0x00, 0x00, 0x00, 0x00, 0x00, 0x80, 0xbc,
  0x00, 0x00, 0x00, 0xbd, 0x00, 0x00, 0x80, 0x3c, 0x00, 0x00, 0x00, 0xbe,
  0x00, 0x00, 0x00, 0xbd, 0x00, 0x00, 0x80, 0xbd, 0x00, 0x00, 0x80, 0xbd,
  0x00, 0x00, 0x00, 0x00, 0x00, 0x00, 0x00, 0xbd, 0x00, 0x00, 0x80, 0xbd,
  0x00, 0x00, 0x80, 0xbd, 0x00, 0x00, 0x00, 0xbd, 0x00, 0x00, 0x00, 0x3d,
  0x00, 0x00, 0x80, 0x3d, 0x00, 0x00, 0x80, 0xbd, 0x00, 0x00, 0x00, 0x3d,
  0x00, 0x00, 0x00, 0x00, 0x00, 0x00, 0x80, 0xbd, 0x00, 0x00, 0x80, 0x3d,
  0x00, 0x00, 0x80, 0xbd, 0x00, 0x00, 0x00, 0x00, 0x00, 0x00, 0x00, 0xbd,
  0x00, 0x00, 0x80, 0x3d, 0x00, 0x00, 0x80, 0x3d, 0x00, 0x00, 0x00, 0xbd,
  0x00, 0x00, 0x80, 0x3c, 0x00, 0x00, 0x80, 0xbd, 0x00, 0x00, 0x00, 0xbe,
  0x00, 0x00, 0x00, 0xbe, 0x00, 0x00, 0x80, 0x3d, 0x00, 0x00, 0x00, 0x3e,
  0x00, 0x00, 0x00, 0xbd, 0x00, 0x00, 0x00, 0x3d, 0x00, 0x00, 0x00, 0x3d,
  0x00, 0x00, 0x00, 0xbe, 0x00, 0x00, 0x80, 0x3d, 0x00, 0x00, 0x80, 0x3c,
  0x00, 0x00, 0x00, 0x3e, 0x00, 0x00, 0x00, 0x00, 0x00, 0x00, 0x00, 0x3d,
  0x00, 0x00, 0x00, 0x3d, 0x00, 0x00, 0x80, 0xbd, 0x00, 0x00, 0x00, 0xbd,
  0x00, 0x00, 0x80, 0x3d, 0x00, 0x00, 0x00, 0x3e, 0x00, 0x00, 0x00, 0x00,
  0x00, 0x00, 0x00, 0xbe, 0x00, 0x00, 0x00, 0x00, 0x00, 0x00, 0x00, 0xbd,
  0x00, 0x00, 0x00, 0xbd, 0x00, 0x00, 0x00, 0x00, 0x00, 0x00, 0x80, 0xbd,
  0x00, 0x00, 0x80, 0xbc, 0x00, 0x00, 0x00, 0x00, 0x00, 0x00, 0x80, 0xbd,
  0x00, 0x00, 0x00, 0x00, 0x00, 0x00, 0x00, 0xbe, 0x00, 0x00, 0x00, 0x3d,
  0x00, 0x00, 0x00, 0xbd, 0x00, 0x00, 0x80, 0x3d, 0x00, 0x00, 0x00, 0x00,
  0x00, 0x00, 0x00, 0x3d, 0x00, 0x00, 0x80, 0x3d, 0x00, 0x00, 0x00, 0x3d,
  0x00, 0x00, 0x80, 0x3d, 0x00, 0x00, 0x80, 0xbd, 0x00, 0x00, 0x80, 0x3d,
  0x00, 0x00, 0x80, 0xbd, 0x00, 0x00, 0x00, 0x3e, 0x00, 0x00, 0x00, 0x3d,
  0x00, 0x00, 0x80, 0xbd, 0x00, 0x00, 0x80, 0xbd, 0x00, 0x00, 0x00, 0xbe,
  0x00, 0x00, 0x00, 0x00, 0x00, 0x00, 0x00, 0xbe, 0x00, 0x00, 0x80, 0xbd,
  0x00, 0x00, 0x80, 0x3d, 0x00, 0x00, 0x80, 0xbd, 0x00, 0x00, 0x80, 0xbd,
  0x00, 0x00, 0x80, 0x3d, 0x00, 0x00, 0x80, 0x3d, 0x00, 0x00, 0x80, 0xbc,
  0x00, 0x00, 0x00, 0x00, 0x00, 0x00, 0x00, 0xbd, 0x00, 0x00, 0x00, 0xbe,
  0x00, 0x00, 0x80, 0x3d, 0x00, 0x00, 0x00, 0x00, 0x00, 0x00, 0x80, 0x3d,
  0x00, 0x00, 0x80, 0x3c, 0x00, 0x00, 0x80, 0xbd, 0x00, 0x00, 0x00, 0xbd,
  0x00, 0x00, 0x00, 0x00, 0x00, 0x00, 0x80, 0xbd, 0x00, 0x00, 0x80, 0xbd,
  0x00, 0x00, 0x00, 0x00, 0x00, 0x00, 0x00, 0xbe, 0x00, 0x00, 0x00, 0xbe,
  0x00, 0x00, 0x00, 0x00, 0x00, 0x00, 0x00, 0x3e, 0x00, 0x00, 0x00, 0x3d,
  0x00, 0x00, 0x80, 0xbd, 0x00, 0x00, 0x80, 0xbc, 0x00, 0x00, 0x80, 0xbd,
  0x00, 0x00, 0x80, 0xbd, 0x00, 0x00, 0x00, 0x3d, 0x00, 0x00, 0x80, 0xbd,
  0x00, 0x00, 0x00, 0xbd, 0x00, 0x00, 0x80, 0xbc, 0x00, 0x00, 0x00, 0x00,
  0x00, 0x00, 0x00, 0x00, 0x00, 0x00, 0x80, 0xbd, 0x00, 0x00, 0x00, 0x00,
  0x00, 0x00, 0x80, 0x3d, 0x00, 0x00, 0x00, 0x3d, 0x00, 0x00, 0x80, 0x3c,
  0x00, 0x00, 0x80, 0x3d, 0x00, 0x00, 0x80, 0xbd, 0x00, 0x00, 0x80, 0xbd,
  0x00, 0x00, 0x00, 0x00, 0x00, 0x00, 0x80, 0xbd, 0x00, 0x00, 0x80, 0x3d,
  0x00, 0x00, 0x00, 0xbe, 0x00, 0x00, 0x00, 0x3e, 0x00, 0x00, 0x80, 0xbc,
  0x00, 0x00, 0x00, 0x00, 0x00, 0x00, 0x80, 0xbd, 0x00, 0x00, 0x00, 0x3e,
  0x00, 0x00, 0x80, 0xbc, 0x00, 0x00, 0x80, 0x3d, 0x00, 0x00, 0x80, 0x3c,
  0x00, 0x00, 0x80, 0xbd, 0x00, 0x00, 0x00, 0x3d, 0x00, 0x00, 0x00, 0xbd,
  0x00, 0x00, 0x80, 0xbc, 0x00, 0x00, 0x80, 0xbd, 0x00, 0x00, 0x00, 0x00,
  0x00, 0x00, 0x00, 0xbd, 0x00, 0x00, 0x80, 0x3c, 0x00, 0x00, 0x80, 0x3d,
  0x00, 0x00, 0x00, 0x00, 0x00, 0x00, 0x80, 0xbc, 0x00, 0x00, 0x00, 0xbd,
  0x00, 0x00, 0x80, 0x3d, 0x00, 0x00, 0x80, 0x3d, 0x00, 0x00, 0x80, 0xbd,
  0x00, 0x00, 0x00, 0x00, 0x00, 0x00, 0x00, 0x3d, 0x00, 0x00, 0x00, 0x3e,
  0x00, 0x00, 0x80, 0xbc, 0x00, 0x00, 0x00, 0x00, 0x00, 0x00, 0x00, 0x00,
  0x00, 0x00, 0x80, 0x3d, 0x00, 0x00, 0x00, 0x3e, 0x00, 0x00, 0x80, 0x3c,
  0x00, 0x00, 0x80, 0xbd, 0x00, 0x00, 0x80, 0x3d, 0x00, 0x00, 0x00, 0xbd,
  0x00, 0x00, 0x00, 0x3d, 0x00, 0x00, 0x00, 0x00, 0x00, 0x00, 0x80, 0x3d,
  0x00, 0x00, 0x80, 0x3d, 0x00, 0x00, 0x00, 0xbe, 0x00, 0x00, 0x80, 0xbd,
  0x00, 0x00, 0x80, 0xbd, 0x00, 0x00, 0x00, 0x3e, 0x00, 0x00, 0x80, 0x3d,
  0x00, 0x00, 0x00, 0xbe, 0x00, 0x00, 0x80, 0xbd, 0x00, 0x00, 0x80, 0x3d,
  0x00, 0x00, 0x00, 0x00, 0x00, 0x00, 0x80, 0xbd, 0x00, 0x00, 0x80, 0x3c,
  0x00, 0x00, 0x80, 0x3d, 0x00, 0x00, 0x00, 0x3d, 0x00, 0x00, 0x00, 0x3e,
  0x00, 0x00, 0x00, 0x3e, 0x00, 0x00, 0x00, 0x00, 0x00, 0x00, 0x00, 0x3d,
  0x00, 0x00, 0x80, 0x3d, 0x00, 0x00, 0x80, 0x3c, 0x00, 0x00, 0x80, 0xbd,
  0x00, 0x00, 0x80, 0x3d, 0x00, 0x00, 0x80, 0xbc, 0x00, 0x00, 0x00, 0xbd,
  0x00, 0x00, 0x80, 0x3c, 0x00, 0x00, 0x80, 0x3d, 0x00, 0x00, 0x80, 0x3d,
  0x00, 0x00, 0x80, 0xbd, 0x00, 0x00, 0x80, 0xbd, 0x00, 0x00, 0x80, 0x3d,
  0x00, 0x00, 0x80, 0x3d, 0x00, 0x00, 0x80, 0x3d, 0x00, 0x00, 0x00, 0x3d,
  0x00, 0x00, 0x80, 0x3d, 0x00, 0x00, 0x00, 0xbe, 0x00, 0x00, 0x00, 0x00,
  0x00, 0x00, 0x00, 0xbd, 0x00, 0x00, 0x00, 0x00, 0x00, 0x00, 0x80, 0x3d,
  0x00, 0x00, 0x00, 0x00, 0x00, 0x00, 0x80, 0xbd, 0x00, 0x00, 0x80, 0xbc,
  0x00, 0x00, 0x00, 0x3e, 0x00, 0x00, 0x80, 0x3d, 0x00, 0x00, 0x00, 0x3d,
  0x00, 0x00, 0x80, 0x3c, 0x00, 0x00, 0x00, 0x00, 0x00, 0x00, 0x80, 0xbd,
  0x00, 0x00, 0x00, 0xbd, 0x00, 0x00, 0x00, 0xbd, 0x00, 0x00, 0x00, 0xbd,
  0x00, 0x00, 0x00, 0xbd, 0x00, 0x00, 0x80, 0xbd, 0x00, 0x00, 0x00, 0x3d,
  0x00, 0x00, 0x80, 0xbd, 0x00, 0x00, 0x80, 0x3d, 0x00, 0x00, 0x80, 0x3d,
  0x00, 0x00, 0x80, 0xbd, 0x00, 0x00, 0x00, 0x00, 0x00, 0x00, 0x00, 0x00,
  0x00, 0x00, 0x00, 0xbd, 0x00, 0x00, 0x00, 0x00, 0x00, 0x00, 0x80, 0xbd,
  0x00, 0x00, 0x00, 0xbd, 0x00, 0x00, 0x00, 0xbd, 0x00, 0x00, 0x80, 0x3d,
  0x00, 0x00, 0x00, 0x3e, 0x00, 0x00, 0x00, 0x3d, 0x00, 0x00, 0x80, 0xbd,
  0x00, 0x00, 0x80, 0x3d, 0x00, 0x00, 0x80, 0xbd, 0x00, 0x00, 0x00, 0x00,
  0x00, 0x00, 0x00, 0xbd, 0x00, 0x00, 0x80, 0xbd, 0x00, 0x00, 0x00, 0xbd,
  0x00, 0x00, 0x00, 0x3d, 0x00, 0x00, 0x00, 0xbe, 0x00, 0x00, 0x00, 0xbd,
  0x00, 0x00, 0x80, 0xbd, 0x00, 0x00, 0x00, 0x00, 0x00, 0x00, 0x00, 0xbd,
  0x00, 0x00, 0x80, 0xbd, 0x00, 0x00, 0x00, 0xbd, 0x00, 0x00, 0x00, 0x00,
  0x00, 0x00, 0x80, 0x3d, 0x00, 0x00, 0x00, 0x3d, 0x00, 0x00, 0x00, 0x00,
  0x00, 0x00, 0x80, 0xbd, 0x00, 0x00, 0x00, 0xbd, 0x00, 0x00, 0x80, 0x3d,
  0x00, 0x00, 0x80, 0xbd, 0x00, 0x00, 0x00, 0x3d, 0x00, 0x00, 0x00, 0xbd,
  0x00, 0x00, 0x00, 0x00, 0x00, 0x00, 0x00, 0x3d, 0x00, 0x00, 0x80, 0xbd,
  0x00, 0x00, 0x80, 0xbd, 0x00, 0x00, 0x00, 0x3e, 0x00, 0x00, 0x80, 0xbd,
  0x00, 0x00, 0x80, 0xbd, 0x00, 0x00, 0x80, 0xbd, 0x00, 0x00, 0x00, 0x3d,
  0x00, 0x00, 0x80, 0x3d, 0x00, 0x00, 0x80, 0xbd, 0x00, 0x00, 0x00, 0x00,
  0x00, 0x00, 0x80, 0xbd, 0x00, 0x00, 0x80, 0xbc, 0x00, 0x00, 0x00, 0x3d,
  0x00, 0x00, 0x00, 0xbe, 0x00, 0x00, 0x80, 0xbd, 0x00, 0x00, 0x00, 0x3d,
  0x00, 0x00, 0x00, 0x3d, 0x00, 0x00, 0x00, 0xbd, 0x00, 0x00, 0x80, 0x3d,
  0x00, 0x00, 0x00, 0x3d, 0x00, 0x00, 0x80, 0x3d, 0x00, 0x00, 0x80, 0xbd,
  0x00, 0x00, 0x80, 0x3d, 0x00, 0x00, 0x00, 0x3d, 0x00, 0x00, 0x00, 0xbe,
  0x00, 0x00, 0x80, 0xbd, 0x00, 0x00, 0x00, 0x00, 0x00, 0x00, 0x80, 0x3d,
  0x00, 0x00, 0x00, 0xbd, 0x00, 0x00, 0x00, 0x00, 0x00, 0x00, 0x00, 0x3d,
  0x00, 0x00, 0x00, 0x3d, 0x00, 0x00, 0x80, 0x3d, 0x00, 0x00, 0x80, 0x3d,
  0x00, 0x00, 0x00, 0xbd, 0x00, 0x00, 0x00, 0x00, 0x00, 0x00, 0x80, 0xbd,
  0x00, 0x00, 0x80, 0xbc, 0x00, 0x00, 0x00, 0xbe, 0x00, 0x00, 0x00, 0x00,
  0x00, 0x00, 0x80, 0x3d, 0x00, 0x00, 0x80, 0xbd, 0x00, 0x00, 0x00, 0xbd,
  0x00, 0x00, 0x80, 0xbc, 0x00, 0x00, 0x80, 0xbd, 0x00, 0x00, 0x80, 0x3d,
  0x00, 0x00, 0x00, 0x3e, 0x00, 0x00, 0x80, 0x3c, 0x00, 0x00, 0x80, 0x3d,
  0x00, 0x00, 0x80, 0x3c, 0x00, 0x00, 0x80, 0x3d, 0x00, 0x00, 0x80, 0xbd,
  0x00, 0x00, 0x80, 0xbd, 0x00, 0x00, 0x80, 0xbc, 0x00, 0x00, 0x80, 0x3c,
  0x00, 0x00, 0x80, 0xbc, 0x00, 0x00, 0x80, 0x3d, 0x00, 0x00, 0x00, 0x00,
  0x00, 0x00, 0x00, 0xbe, 0x00, 0x00, 0x00, 0x3e, 0x00, 0x00, 0x80, 0xbd,
  0x00, 0x00, 0x80, 0x3d, 0x00, 0x00, 0x00, 0x3e, 0x00, 0x00, 0x00, 0xbe,
  0x00, 0x00, 0x00, 0xbe, 0x00, 0x00, 0x80, 0xbd, 0x00, 0x00, 0x80, 0x3d,
  0x00, 0x00, 0x00, 0xbd, 0x00, 0x00, 0x80, 0x3d, 0x00, 0x00, 0x80, 0x3d,
  0x00, 0x00, 0x00, 0x3e, 0x00, 0x00, 0x00, 0x3d, 0x00, 0x00, 0x00, 0xbd,
  0x00, 0x00, 0x00, 0xbe, 0x00, 0x00, 0x00, 0xbd, 0x00, 0x00, 0x80, 0x3d,
  0x00, 0x00, 0x80, 0xbd, 0x00, 0x00, 0x00, 0x3e, 0x00, 0x00, 0x00, 0x3e,
  0x00, 0x00, 0x80, 0xbd, 0x00, 0x00, 0x00, 0x3d, 0x00, 0x00, 0x80, 0xbd,
  0x00, 0x00, 0x00, 0x3d, 0x00, 0x00, 0x80, 0xbd, 0x00, 0x00, 0x00, 0x00,
  0x00, 0x00, 0x00, 0x00, 0x00, 0x00, 0x80, 0xbd, 0x00, 0x00, 0x80, 0x3d,
  0x00, 0x00, 0x00, 0xbd, 0x00, 0x00, 0x00, 0xbe, 0x00, 0x00, 0x00, 0xbd,
  0x00, 0x00, 0x80, 0x3d, 0x00, 0x00, 0x80, 0xbd, 0x00, 0x00, 0x80, 0x3d,
  0x00, 0x00, 0x00, 0x3d, 0x00, 0x00, 0x80, 0x3d, 0x00, 0x00, 0x00, 0x00,
  0x00, 0x00, 0x80, 0x3d, 0x00, 0x00, 0x80, 0xbc, 0x00, 0x00, 0x80, 0x3d,
  0x00, 0x00, 0x00, 0xbd, 0x00, 0x00, 0x80, 0xbd, 0x00, 0x00, 0x00, 0xbe,
  0x00, 0x00, 0x80, 0x3d, 0x00, 0x00, 0x00, 0x00, 0x00, 0x00, 0x00, 0x3e,
  0x00, 0x00, 0x80, 0x3d, 0x00, 0x00, 0x80, 0x3d, 0x00, 0x00, 0x80, 0xbd,
  0x00, 0x00, 0x00, 0x00, 0x00, 0x00, 0x80, 0xbd, 0x00, 0x00, 0x00, 0x3e,
  0x00, 0x00, 0x80, 0x3d, 0x00, 0x00, 0x80, 0xbd, 0x00, 0x00, 0x80, 0xbd,
  0x00, 0x00, 0x00, 0x3d, 0x00, 0x00, 0x80, 0x3c, 0x00, 0x00, 0x00, 0x3d,
  0x00, 0x00, 0x00, 0xbe, 0x00, 0x00, 0x80, 0x3d, 0x00, 0x00, 0x80, 0x3c,
  0x00, 0x00, 0x80, 0xbd, 0x00, 0x00, 0x00, 0x3e, 0x00, 0x00, 0x00, 0x00,
  0x00, 0x00, 0x00, 0xbe, 0x00, 0x00, 0x80, 0xbd, 0x00, 0x00, 0x00, 0x3d,
  0x00, 0x00, 0x00, 0xbd, 0x00, 0x00, 0x80, 0x3d, 0x00, 0x00, 0x80, 0xbc,
  0x00, 0x00, 0x80, 0x3d, 0x00, 0x00, 0x80, 0xbd, 0x00, 0x00, 0x00, 0x3e,
  0x00, 0x00, 0x00, 0x00, 0x00, 0x00, 0x80, 0x3d, 0x00, 0x00, 0x00, 0xbd,
  0x00, 0x00, 0x80, 0x3d, 0x00, 0x00, 0x00, 0x3d, 0x00, 0x00, 0x80, 0xbd,
  0x00, 0x00, 0x80, 0x3c, 0x00, 0x00, 0x00, 0xbd, 0x00, 0x00, 0x00, 0xbd,
  0x00, 0x00, 0x80, 0xbd, 0x00, 0x00, 0x00, 0x00, 0x00, 0x00, 0x00, 0xbd,
  0x00, 0x00, 0x80, 0x3d, 0x00, 0x00, 0x80, 0x3d, 0x00, 0x00, 0x80, 0x3c,
  0x00, 0x00, 0x00, 0xbe, 0x00, 0x00, 0x00, 0x3d, 0x00, 0x00, 0x00, 0x00,
  0x00, 0x00, 0x00, 0x00, 0x00, 0x00, 0x80, 0xbd, 0x00, 0x00, 0x00, 0xbd,
  0x00, 0x00, 0x00, 0xbd, 0x00, 0x00, 0x00, 0xbd, 0x00, 0x00, 0x00, 0x00,
  0x00, 0x00, 0x00, 0x3e, 0x00, 0x00, 0x80, 0x3c, 0x00, 0x00, 0x80, 0xbd,
  0x00, 0x00, 0x80, 0xbc, 0x00, 0x00, 0x80, 0x3d, 0x00, 0x00, 0x80, 0xbd,
  0x00, 0x00, 0x00, 0xbe, 0x00, 0x00, 0x80, 0x3d, 0x00, 0x00, 0x00, 0x3d,
  0x00, 0x00, 0x80, 0xbd, 0x00, 0x00, 0x80, 0xbd, 0x00, 0x00, 0x80, 0x3d,
  0x00, 0x00, 0x00, 0xbe, 0x00, 0x00, 0x80, 0xbd, 0x00, 0x00, 0x00, 0x00,
  0x00, 0x00, 0x80, 0xbd, 0x00, 0x00, 0x00, 0xbd, 0x00, 0x00, 0x00, 0x3d,
  0x00, 0x00, 0x00, 0x3e, 0x00, 0x00, 0x00, 0x3d, 0x00, 0x00, 0x80, 0xbd,
  0x00, 0x00, 0x80, 0x3d, 0x00, 0x00, 0x80, 0x3d, 0x00, 0x00, 0x00, 0x3d,
  0x00, 0x00, 0x80, 0xbd, 0x00, 0x00, 0x80, 0xbd, 0x00, 0x00, 0x00, 0x00,
  0x00, 0x00, 0x00, 0xbd, 0x00, 0x00, 0x00, 0xbd, 0x00, 0x00, 0x80, 0xbd,
  0x00, 0x00, 0x00, 0x3d, 0x00, 0x00, 0x00, 0x00, 0x00, 0x00, 0x80, 0x3d,
  0x00, 0x00, 0x80, 0x3c, 0x00, 0x00, 0x80, 0x3d, 0x00, 0x00, 0x80, 0xbd,
  0x00, 0x00, 0x80, 0x3d, 0x00, 0x00, 0x00, 0xbe, 0x00, 0x00, 0x80, 0xbc,
  0x00, 0x00, 0x00, 0xbd, 0x00, 0x00, 0x80, 0xbd, 0x00, 0x00, 0x00, 0x3e,
  0x00, 0x00, 0x80, 0x3c, 0x00, 0x00, 0x80, 0x3d, 0x00, 0x00, 0x00, 0xbd,
  0x00, 0x00, 0x80, 0xbd, 0x00, 0x00, 0x00, 0x3d, 0x00, 0x00, 0x80, 0xbd,
  0x00, 0x00, 0x00, 0x00, 0x00, 0x00, 0x80, 0xbc, 0x00, 0x00, 0x80, 0xbc,
  0x00, 0x00, 0x80, 0x3d, 0x00, 0x00, 0x80, 0x3d, 0x00, 0x00, 0x80, 0xbd,
  0x00, 0x00, 0x00, 0x3d, 0x00, 0x00, 0x00, 0xbe, 0x00, 0x00, 0x80, 0xbd,
  0x00, 0x00, 0x00, 0x00, 0x00, 0x00, 0x80, 0xbd, 0x00, 0x00, 0x00, 0xbd,
  0x00, 0x00, 0x00, 0x00, 0x00, 0x00, 0x00, 0x3e, 0x00, 0x00, 0x80, 0xbd,
  0x00, 0x00, 0x80, 0x3d, 0x00, 0x00, 0x00, 0xbe, 0x00, 0x00, 0x80, 0x3d,
  0x00, 0x00, 0x80, 0xbd, 0x00, 0x00, 0x00, 0xbd, 0x00, 0x00, 0x80, 0xbd,
  0x00, 0x00, 0x00, 0xbe, 0x00, 0x00, 0x80, 0xbc, 0x00, 0x00, 0x00, 0xbd,
  0x00, 0x00, 0x00, 0x00, 0x00, 0x00, 0x00, 0x3d, 0x00, 0x00, 0x00, 0xbe,
  0x00, 0x00, 0x00, 0xbe, 0x00, 0x00, 0x80, 0xbd, 0x00, 0x00, 0x00, 0x00,
  0x00, 0x00, 0x80, 0x3d, 0x00, 0x00, 0x00, 0x3d, 0x00, 0x00, 0x80, 0x3d,
  0x00, 0x00, 0x80, 0xbd, 0x00, 0x00, 0x00, 0xbd, 0x00, 0x00, 0x00, 0x00,
  0x00, 0x00, 0x00, 0xbe, 0x00, 0x00, 0x80, 0x3d, 0x00, 0x00, 0x80, 0x3c,
  0x00, 0x00, 0x80, 0xbd, 0x00, 0x00, 0x00, 0x3d, 0x00, 0x00, 0x80, 0xbc,
  0x00, 0x00, 0x00, 0x00, 0x00, 0x00, 0x00, 0xbe, 0x00, 0x00, 0x00, 0xbe,
  0x00, 0x00, 0x00, 0xbe, 0x00, 0x00, 0x80, 0x3d, 0x00, 0x00, 0x80, 0xbd,
  0x00, 0x00, 0x80, 0xbd, 0x00, 0x00, 0x80, 0x3d, 0x00, 0x00, 0x80, 0xbc,
  0x00, 0x00, 0x00, 0x00, 0x00, 0x00, 0x80, 0xbc, 0x00, 0x00, 0x00, 0xbe,
  0x00, 0x00, 0x80, 0xbd, 0x00, 0x00, 0x00, 0x3d, 0x00, 0x00, 0x80, 0xbc,
  0x00, 0x00, 0x80, 0x3c, 0x00, 0x00, 0x00, 0xbd, 0x00, 0x00, 0x00, 0x3d,
  0x00, 0x00, 0x80, 0x3d, 0x00, 0x00, 0x80, 0x3d, 0x00, 0x00, 0x80, 0xbd,
  0x00, 0x00, 0x00, 0xbe, 0x00, 0x00, 0x80, 0x3d, 0x00, 0x00, 0x80, 0xbd,
  0x00, 0x00, 0x80, 0xbd, 0x00, 0x00, 0x80, 0x3c, 0x00, 0x00, 0x80, 0xbd,
  0x00, 0x00, 0x00, 0xbe, 0x00, 0x00, 0x80, 0xbc, 0x00, 0x00, 0x00, 0xbe,
  0x00, 0x00, 0x80, 0xbd, 0x00, 0x00, 0x80, 0x3d, 0x00, 0x00, 0x80, 0x3d,
  0x00, 0x00, 0x80, 0xbd, 0x00, 0x00, 0x00, 0x3d, 0x00, 0x00, 0x00, 0x00,
  0x00, 0x00, 0x80, 0x3d, 0x00, 0x00, 0x80, 0xbd, 0x00, 0x00, 0x00, 0x3d,
  0x00, 0x00, 0x00, 0x00, 0x00, 0x00, 0x80, 0xbd, 0x00, 0x00, 0x80, 0xbd,
  0x00, 0x00, 0x00, 0x00, 0x00, 0x00, 0x80, 0x3c, 0x00, 0x00, 0x00, 0x3d,
  0x00, 0x00, 0x00, 0xbe, 0x00, 0x00, 0x80, 0xbd, 0x00, 0x00, 0x80, 0xbd,
  0x00, 0x00, 0x80, 0x3d, 0x00, 0x00, 0x00, 0x3d, 0x00, 0x00, 0x80, 0x3d,
  0x00, 0x00, 0x80, 0x3d, 0x00, 0x00, 0x00, 0xbd, 0x00, 0x00, 0x00, 0x00,
  0x00, 0x00, 0x00, 0x00, 0x00, 0x00, 0x80, 0xbd, 0x00, 0x00, 0x80, 0xbd,
  0x00, 0x00, 0x80, 0xbd, 0x00, 0x00, 0x00, 0xbd, 0x00, 0x00, 0x80, 0x3c,
  0x00, 0x00, 0x00, 0x3e, 0x00, 0x00, 0x80, 0x3d, 0x00, 0x00, 0x00, 0x3e,
  0x00, 0x00, 0x00, 0x00, 0x00, 0x00, 0x00, 0x3d, 0x00, 0x00, 0x00, 0x3d,
  0x00, 0x00, 0x00, 0xbd, 0x00, 0x00, 0x00, 0xbe, 0x00, 0x00, 0x80, 0xbd,
  0x00, 0x00, 0x80, 0x3d, 0x00, 0x00, 0x00, 0x3d, 0x00, 0x00, 0x80, 0x3c,
  0x00, 0x00, 0x00, 0x3e, 0x00, 0x00, 0x80, 0xbd, 0x00, 0x00, 0x00, 0x3d,
  0x00, 0x00, 0x80, 0x3d, 0x00, 0x00, 0x80, 0x3d, 0x00, 0x00, 0x00, 0xbe,
  0x00, 0x00, 0x80, 0xbd, 0x00, 0x00, 0x80, 0xbc, 0x00, 0x00, 0x80, 0xbd,
  0x00, 0x00, 0x80, 0xbd, 0x00, 0x00, 0x80, 0x3d, 0x00, 0x00, 0x00, 0x3d,
  0x00, 0x00, 0x80, 0xbd, 0x00, 0x00, 0x80, 0xbd, 0x00, 0x00, 0x00, 0x3d,
  0x00, 0x00, 0x80, 0xbd, 0x00, 0x00, 0x80, 0x3d, 0x00, 0x00, 0x80, 0xbd,
  0x00, 0x00, 0x00, 0xbd, 0x00, 0x00, 0x80, 0xbd, 0x00, 0x00, 0x80, 0x3d,
  0x00, 0x00, 0x00, 0x3d, 0x00, 0x00, 0x80, 0xbd, 0x00, 0x00, 0x80, 0x3d,
  0x00, 0x00, 0x80, 0x3d, 0x00, 0x00, 0x80, 0x3d, 0x00, 0x00, 0x80, 0xbd,
  0x00, 0x00, 0x00, 0x3d, 0x00, 0x00, 0x80, 0xbc, 0x00, 0x00, 0x00, 0xbe,
  0x00, 0x00, 0x80, 0xbd, 0x00, 0x00, 0x80, 0xbc, 0x00, 0x00, 0x80, 0xbd,
  0x00, 0x00, 0x80, 0x3d, 0x00, 0x00, 0x80, 0x3d, 0x00, 0x00, 0x00, 0x00,
  0x00, 0x00, 0x00, 0xbe, 0x00, 0x00, 0x00, 0x00, 0x00, 0x00, 0x00, 0x3d,
  0x00, 0x00, 0x80, 0xbd, 0x00, 0x00, 0x80, 0xbd, 0x00, 0x00, 0x80, 0x3d,
  0x00, 0x00, 0x00, 0xbe, 0x00, 0x00, 0x00, 0x3e, 0x00, 0x00, 0x80, 0xbd,
  0x00, 0x00, 0x00, 0x00, 0x00, 0x00, 0x00, 0x3d, 0x00, 0x00, 0x00, 0x00,
  0x00, 0x00, 0x80, 0xbd, 0x00, 0x00, 0x80, 0x3d, 0x00, 0x00, 0x00, 0x3e,
  0x00, 0x00, 0x80, 0x3d, 0x00, 0x00, 0x00, 0x00, 0x00, 0x00, 0x80, 0x3d,
  0x00, 0x00, 0x00, 0x3e, 0x00, 0x00, 0x00, 0x3d, 0x00, 0x00, 0x00, 0x3d,
  0x00, 0x00, 0x80, 0xbc, 0x00, 0x00, 0x00, 0x3e, 0x00, 0x00, 0x80, 0xbd,
  0x00, 0x00, 0x80, 0x3d, 0x00, 0x00, 0x00, 0x00, 0x00, 0x00, 0x80, 0xbd,
  0x00, 0x00, 0x00, 0x00, 0x00, 0x00, 0x00, 0x3d, 0x00, 0x00, 0x80, 0xbd,
  0x00, 0x00, 0x80, 0xbc, 0x00, 0x00, 0x00, 0xbe, 0x00, 0x00, 0x00, 0x00,
  0x00, 0x00, 0x00, 0x00, 0x00, 0x00, 0x80, 0x3c, 0x00, 0x00, 0x80, 0x3d,
  0x00, 0x00, 0x80, 0x3c, 0x00, 0x00, 0x80, 0xbd, 0x00, 0x00, 0x80, 0x3d,
  0x00, 0x00, 0x00, 0x3e, 0x00, 0x00, 0x80, 0xbc, 0x00, 0x00, 0x80, 0xbc,
  0x00, 0x00, 0x80, 0x3d, 0x00, 0x00, 0x80, 0xbd, 0x00, 0x00, 0x00, 0x00,
  0x00, 0x00, 0x80, 0x3d, 0x00, 0x00, 0x80, 0x3c, 0x00, 0x00, 0x80, 0x3d,
  0x00, 0x00, 0x80, 0x3d, 0x00, 0x00, 0x80, 0xbd, 0x00, 0x00, 0x00, 0x00,
  0x00, 0x00, 0x80, 0x3d, 0x00, 0x00, 0x00, 0x00, 0x00, 0x00, 0x00, 0x3e,
  0x00, 0x00, 0x80, 0x3d, 0x00, 0x00, 0x00, 0x3e, 0x00, 0x00, 0x00, 0x3e,
  0x00, 0x00, 0x00, 0x00, 0x00, 0x00, 0x80, 0xbd, 0x00, 0x00, 0x00, 0x3d,
  0x00, 0x00, 0x80, 0xbc, 0x00, 0x00, 0x80, 0xbd, 0x00, 0x00, 0x00, 0xbd,
  0x00, 0x00, 0x80, 0xbd, 0x00, 0x00, 0x80, 0x3c, 0x00, 0x00, 0x00, 0x3e,
  0x00, 0x00, 0x00, 0x00, 0x00, 0x00, 0x80, 0xbd, 0x00, 0x00, 0x80, 0xbd,
  0x00, 0x00, 0x80, 0x3c, 0x00, 0x00, 0x80, 0x3d, 0x00, 0x00, 0x80, 0xbd,
  0x00, 0x00, 0x00, 0x3d, 0x00, 0x00, 0x00, 0x00, 0x00, 0x00, 0x00, 0x3e,
  0x00, 0x00, 0x80, 0x3d, 0x00, 0x00, 0x80, 0xbd, 0x00, 0x00, 0x00, 0x3e,
  0x00, 0x00, 0x80, 0x3d, 0x00, 0x00, 0x80, 0x3d, 0x00, 0x00, 0x80, 0xbd,
  0x00, 0x00, 0x00, 0x3e, 0x00, 0x00, 0x00, 0xbe, 0x00, 0x00, 0x00, 0x3e,
  0x00, 0x00, 0x00, 0x3d, 0x00, 0x00, 0x00, 0x00, 0x00, 0x00, 0x00, 0x00,
  0x00, 0x00, 0x80, 0xbd, 0x00, 0x00, 0x80, 0x3d, 0x00, 0x00, 0x80, 0x3c,
  0x00, 0x00, 0x00, 0xbe, 0x00, 0x00, 0x00, 0xbe, 0x00, 0x00, 0x00, 0x00,
  0x00, 0x00, 0x00, 0x3d, 0x00, 0x00, 0x00, 0xbd, 0x00, 0x00, 0x00, 0xbd,
  0x00, 0x00, 0x00, 0xbe, 0x00, 0x00, 0x80, 0x3d, 0x00, 0x00, 0x00, 0xbd,
  0x00, 0x00, 0x00, 0xbe, 0x00, 0x00, 0x00, 0xbd, 0x00, 0x00, 0x00, 0x00,
  0x00, 0x00, 0x00, 0x3d, 0x00, 0x00, 0x80, 0x3d, 0x00, 0x00, 0x80, 0xbd,
  0x00, 0x00, 0x80, 0x3d, 0x00, 0x00, 0x00, 0x00, 0x00, 0x00, 0x00, 0x00,
  0x00, 0x00, 0x00, 0xbe, 0x00, 0x00, 0x80, 0xbd, 0x00, 0x00, 0x00, 0xbd,
  0x00, 0x00, 0x00, 0xbe, 0x00, 0x00, 0x80, 0x3d, 0x00, 0x00, 0x80, 0xbd,
  0x00, 0x00, 0x80, 0xbc, 0x00, 0x00, 0x00, 0x3d, 0x00, 0x00, 0x80, 0x3d,
  0x00, 0x00, 0x80, 0x3d, 0x00, 0x00, 0x80, 0xbc, 0x00, 0x00, 0x00, 0x00,
  0x00, 0x00, 0x80, 0x3d, 0x00, 0x00, 0x00, 0xbd, 0x00, 0x00, 0x00, 0xbd,
  0x00, 0x00, 0x80, 0xbd, 0x00, 0x00, 0x80, 0x3d, 0x00, 0x00, 0x80, 0x3d,
  0x00, 0x00, 0x80, 0xbd, 0x00, 0x00, 0x00, 0x3d, 0x00, 0x00, 0x80, 0x3d,
  0x00, 0x00, 0x80, 0x3c, 0x00, 0x00, 0x80, 0x3d, 0x00, 0x00, 0x00, 0x3d,
  0x00, 0x00, 0x80, 0x3d, 0x00, 0x00, 0x00, 0x3d, 0x00, 0x00, 0x80, 0xbd,
  0x00, 0x00, 0x80, 0xbc, 0x00, 0x00, 0x00, 0x00, 0x00, 0x00, 0x00, 0x3d,
  0x00, 0x00, 0x80, 0xbd, 0x00, 0x00, 0x80, 0xbd, 0x00, 0x00, 0x00, 0xbe,
  0x00, 0x00, 0x80, 0xbd, 0x00, 0x00, 0x80, 0xbc, 0x00, 0x00, 0x80, 0xbc,
  0x00, 0x00, 0x80, 0xbd, 0x00, 0x00, 0x00, 0xbe, 0x00, 0x00, 0x00, 0x00,
  0x00, 0x00, 0x80, 0x3d, 0x00, 0x00, 0x00, 0xbd, 0x00, 0x00, 0x80, 0x3d,
  0x00, 0x00, 0x00, 0xbd, 0x00, 0x00, 0x80, 0xbd, 0x00, 0x00, 0x00, 0x00,
  0x00, 0x00, 0x80, 0x3d, 0x00, 0x00, 0x00, 0x3d, 0x00, 0x00, 0x00, 0x3d,
  0x00, 0x00, 0x00, 0x3e, 0x00, 0x00, 0x80, 0x3d, 0x00, 0x00, 0x80, 0xbd,
  0x00, 0x00, 0x80, 0xbd, 0x00, 0x00, 0x80, 0xbd, 0x00, 0x00, 0x00, 0x3d,
  0x00, 0x00, 0x80, 0xbd, 0x00, 0x00, 0x80, 0xbc, 0x00, 0x00, 0x80, 0xbd,
  0x00, 0x00, 0x00, 0x3d, 0x00, 0x00, 0x00, 0x00, 0x00, 0x00, 0x80, 0x3c,
  0x00, 0x00, 0x80, 0xbc, 0x00, 0x00, 0x00, 0x3d, 0x00, 0x00, 0x00, 0x3e,
  0x00, 0x00, 0x00, 0x00, 0x00, 0x00, 0x80, 0xbd, 0x00, 0x00, 0x00, 0x3d,
  0x00, 0x00, 0x00, 0xbe, 0x00, 0x00, 0x00, 0xbd, 0x00, 0x00, 0x80, 0xbd,
  0x00, 0x00, 0x00, 0x3d, 0x00, 0x00, 0x00, 0x3d, 0x00, 0x00, 0x80, 0xbd,
  0x00, 0x00, 0x00, 0x00, 0x00, 0x00, 0x00, 0x3e, 0x00, 0x00, 0x80, 0xbd,
  0x00, 0x00, 0x00, 0x3d, 0x00, 0x00, 0x80, 0x3d, 0x00, 0x00, 0x80, 0xbd,
  0x00, 0x00, 0x80, 0xbd, 0x00, 0x00, 0x00, 0x3d, 0x00, 0x00, 0x80, 0x3c,
  0x00, 0x00, 0x80, 0x3d, 0x00, 0x00, 0x80, 0xbc, 0x00, 0x00, 0x80, 0x3d,
  0x00, 0x00, 0x00, 0xbd, 0x00, 0x00, 0x00, 0x3e, 0x00, 0x00, 0x00, 0x3e,
  0x00, 0x00, 0x00, 0xbd, 0x00, 0x00, 0x00, 0xbd, 0x00, 0x00, 0x00, 0x3d,
  0x00, 0x00, 0x00, 0xbd, 0x00, 0x00, 0x80, 0x3c, 0x00, 0x00, 0x00, 0xbd,
  0x00, 0x00, 0x00, 0xbd, 0x00, 0x00, 0x00, 0x3e, 0x00, 0x00, 0x00, 0x3d,
  0x00, 0x00, 0x80, 0x3d, 0x00, 0x00, 0x80, 0xbc, 0x00, 0x00, 0x80, 0xbd,
  0x00, 0x00, 0x80, 0xbd, 0x00, 0x00, 0x80, 0x3c, 0x00, 0x00, 0x80, 0x3d,
  0x00, 0x00, 0x00, 0x3e, 0x00, 0x00, 0x80, 0x3d, 0x00, 0x00, 0x00, 0x3e,
  0x00, 0x00, 0x80, 0xbd, 0x00, 0x00, 0x80, 0xbd, 0x00, 0x00, 0x00, 0xbd,
  0x00, 0x00, 0x00, 0x00, 0x00, 0x00, 0x00, 0x00, 0x00, 0x00, 0x00, 0x3e,
  0x00, 0x00, 0x00, 0xbd, 0x00, 0x00, 0x00, 0xbd, 0x00, 0x00, 0x80, 0x3c,
  0x00, 0x00, 0x80, 0xbd, 0x00, 0x00, 0x80, 0x3c, 0x00, 0x00, 0x00, 0x3e,
  0x00, 0x00, 0x80, 0x3d, 0x00, 0x00, 0x80, 0x3d, 0x00, 0x00, 0x80, 0x3d,
  0x00, 0x00, 0x00, 0xbe, 0x00, 0x00, 0x80, 0x3d, 0x00, 0x00, 0x80, 0x3d,
  0x00, 0x00, 0x80, 0x3d, 0x00, 0x00, 0x80, 0xbd, 0x00, 0x00, 0x00, 0x3d,
  0x00, 0x00, 0x00, 0x00, 0x00, 0x00, 0x00, 0xbd, 0x00, 0x00, 0x80, 0x3d,
  0x00, 0x00, 0x80, 0xbd, 0x00, 0x00, 0x00, 0x3e, 0x00, 0x00, 0x00, 0x00,
  0x00, 0x00, 0x00, 0xbd, 0x00, 0x00, 0x80, 0xbc, 0x00, 0x00, 0x00, 0xbd,
  0x00, 0x00, 0x00, 0xbe, 0x00, 0x00, 0x00, 0x3e, 0x00, 0x00, 0x00, 0x3d,
  0x00, 0x00, 0x00, 0x00, 0x00, 0x00, 0x80, 0x3d, 0x00, 0x00, 0x80, 0x3d,
  0x00, 0x00, 0x80, 0xbd, 0x00, 0x00, 0x00, 0xbe, 0x00, 0x00, 0x80, 0x3d,
  0x00, 0x00, 0x00, 0xbd, 0x00, 0x00, 0x00, 0x00, 0x00, 0x00, 0x00, 0xbd,
  0x00, 0x00, 0x00, 0x3d, 0x00, 0x00, 0x80, 0xbd, 0x00, 0x00, 0x80, 0x3d,
  0x00, 0x00, 0x00, 0xbd, 0x00, 0x00, 0x80, 0x3d, 0x00, 0x00, 0x00, 0x3d,
  0x00, 0x00, 0x00, 0xbe, 0x00, 0x00, 0x00, 0x3d, 0x00, 0x00, 0x80, 0xbd,
  0x00, 0x00, 0x00, 0xbd, 0x00, 0x00, 0x00, 0xbd, 0x00, 0x00, 0x00, 0x3e,
  0x00, 0x00, 0x00, 0x00, 0x00, 0x00, 0x00, 0xbd, 0x00, 0x00, 0x80, 0x3d,
  0x00, 0x00, 0x00, 0x00, 0x00, 0x00, 0x00, 0x3d, 0x00, 0x00, 0x80, 0xbc,
  0x00, 0x00, 0x80, 0x3d, 0x00, 0x00, 0x00, 0xbd, 0x00, 0x00, 0x80, 0xbd,
  0x00, 0x00, 0x80, 0x3d, 0x00, 0x00, 0x80, 0xbd, 0x00, 0x00, 0x00, 0x00,
  0x00, 0x00, 0x00, 0x3d, 0x00, 0x00, 0x00, 0x00, 0x00, 0x00, 0x80, 0x3d,
  0x00, 0x00, 0x00, 0x00, 0x00, 0x00, 0x80, 0x3d, 0x00, 0x00, 0x00, 0xbd,
  0x00, 0x00, 0x00, 0x3e, 0x00, 0x00, 0x80, 0xbd, 0x00, 0x00, 0x80, 0xbc,
  0x00, 0x00, 0x00, 0x00, 0x00, 0x00, 0x80, 0xbd, 0x00, 0x00, 0x80, 0xbd,
  0x00, 0x00, 0x80, 0x3d, 0x00, 0x00, 0x80, 0x3c, 0x00, 0x00, 0x00, 0xbd,
  0x00, 0x00, 0x80, 0xbd, 0x00, 0x00, 0x80, 0x3d, 0x00, 0x00, 0x80, 0xbd,
  0x00, 0x00, 0x00, 0xbe, 0x00, 0x00, 0x80, 0x3d, 0x00, 0x00, 0x00, 0xbe,
  0x00, 0x00, 0x00, 0x00, 0x00, 0x00, 0x00, 0xbd, 0x00, 0x00, 0x80, 0xbc,
  0x00, 0x00, 0x80, 0x3c, 0x00, 0x00, 0x00, 0x3e, 0x00, 0x00, 0x00, 0x3d,
  0x00, 0x00, 0x80, 0x3d, 0x00, 0x00, 0x00, 0x00, 0x00, 0x00, 0x00, 0xbe,
  0x00, 0x00, 0x80, 0x3c, 0x00, 0x00, 0x00, 0x00, 0x00, 0x00, 0x80, 0xbc,
  0x00, 0x00, 0x00, 0x3d, 0x00, 0x00, 0x00, 0x3d, 0x00, 0x00, 0x80, 0xbd,
  0x00, 0x00, 0x80, 0x3d, 0x00, 0x00, 0x00, 0x3d, 0x00, 0x00, 0x80, 0xbd,
  0x00, 0x00, 0x80, 0x3d, 0x00, 0x00, 0x00, 0x3e, 0x00, 0x00, 0x80, 0xbd,
  0x00, 0x00, 0x00, 0x3d, 0x00, 0x00, 0x80, 0xbd, 0x00, 0x00, 0x00, 0x3d,
  0x00, 0x00, 0x80, 0x3d, 0x00, 0x00, 0x80, 0xbd, 0x00, 0x00, 0x00, 0x3e,
  0x00, 0x00, 0x00, 0xbe, 0x00, 0x00, 0x80, 0xbd, 0x00, 0x00, 0x80, 0xbd,
  0x00, 0x00, 0x80, 0xbc, 0x00, 0x00, 0x00, 0x3e, 0x00, 0x00, 0x00, 0x00,
  0x00, 0x00, 0x00, 0x3d, 0x00, 0x00, 0x00, 0xbe, 0x00, 0x00, 0x00, 0x00,
  0x00, 0x00, 0x80, 0x3d, 0x00, 0x00, 0x00, 0xbe, 0x00, 0x00, 0x80, 0x3d,
  0x00, 0x00, 0x00, 0xbe, 0x00, 0x00, 0x00, 0x3e, 0x00, 0x00, 0x00, 0xbd,
  0x00, 0x00, 0x80, 0xbd, 0x00, 0x00, 0x00, 0x00, 0x00, 0x00, 0x00, 0xbe,
  0x00, 0x00, 0x00, 0x3d, 0x00, 0x00, 0x00, 0x3e, 0x00, 0x00, 0x00, 0xbd,
  0x00, 0x00, 0x00, 0x3e, 0x00, 0x00, 0x00, 0xbd, 0x00, 0x00, 0x00, 0x3e,
  0x00, 0x00, 0x00, 0xbd, 0x00, 0x00, 0x00, 0x3e, 0x00, 0x00, 0x80, 0x3d,
  0x00, 0x00, 0x00, 0x00, 0x00, 0x00, 0x00, 0x3d, 0x00, 0x00, 0x00, 0x3d,
  0x00, 0x00, 0x00, 0x3e, 0x00, 0x00, 0x80, 0x3c, 0x00, 0x00, 0x00, 0xbd,
  0x00, 0x00, 0x00, 0x3d, 0x00, 0x00, 0x00, 0xbe, 0x00, 0x00, 0x00, 0x3d,
  0x00, 0x00, 0x00, 0x3d, 0x00, 0x00, 0x80, 0x3d, 0x00, 0x00, 0x00, 0x00,
  0x00, 0x00, 0x80, 0x3c, 0x00, 0x00, 0x80, 0x3d, 0x00, 0x00, 0x00, 0x3e,
  0x00, 0x00, 0x00, 0x00, 0x00, 0x00, 0x00, 0x00, 0x00, 0x00, 0x00, 0xbd,
  0x00, 0x00, 0x00, 0x00, 0x00, 0x00, 0x00, 0x00, 0x00, 0x00, 0x80, 0xbd,
  0x00, 0x00, 0x00, 0x00, 0x00, 0x00, 0x80, 0xbd, 0x00, 0x00, 0x80, 0xbd,
  0x00, 0x00, 0x00, 0x3d, 0x00, 0x00, 0x00, 0x3d, 0x00, 0x00, 0x00, 0x00,
  0x00, 0x00, 0x00, 0x00, 0x00, 0x00, 0x80, 0xbd, 0x00, 0x00, 0x00, 0xbd,
  0x00, 0x00, 0x80, 0xbd, 0x00, 0x00, 0x80, 0xbc, 0x00, 0x00, 0x00, 0x3d,
  0x00, 0x00, 0x80, 0x3d, 0x00, 0x00, 0x80, 0x3c, 0x00, 0x00, 0x80, 0x3d,
  0x00, 0x00, 0x80, 0xbc, 0x00, 0x00, 0x00, 0x3d, 0x00, 0x00, 0x00, 0x00,
  0x00, 0x00, 0x00, 0xbe, 0x00, 0x00, 0x80, 0xbd, 0x00, 0x00, 0x00, 0xbd,
  0x00, 0x00, 0x80, 0xbd, 0x00, 0x00, 0x80, 0x3d, 0x00, 0x00, 0x80, 0xbd,
  0x00, 0x00, 0x00, 0x3e, 0x00, 0x00, 0x00, 0x3e, 0x00, 0x00, 0x00, 0x3e,
  0x00, 0x00, 0x80, 0xbc, 0x00, 0x00, 0x80, 0x3d, 0x00, 0x00, 0x80, 0x3d,
  0x00, 0x00, 0x00, 0x3d, 0x00, 0x00, 0x80, 0x3d, 0x00, 0x00, 0x80, 0xbd,
  0x00, 0x00, 0x00, 0xbe, 0x00, 0x00, 0x00, 0x3d, 0x00, 0x00, 0x80, 0x3c,
  0x00, 0x00, 0x80, 0xbd, 0x00, 0x00, 0x00, 0x00, 0x00, 0x00, 0x80, 0xbd,
  0x00, 0x00, 0x00, 0x3d, 0x00, 0x00, 0x00, 0x00, 0x00, 0x00, 0x80, 0x3d,
  0x00, 0x00, 0x00, 0x00, 0x00, 0x00, 0x80, 0xbd, 0x00, 0x00, 0x00, 0x00,
  0x00, 0x00, 0x00, 0x3e, 0x00, 0x00, 0x80, 0x3d, 0x00, 0x00, 0x00, 0xbd,
  0x00, 0x00, 0x80, 0x3d, 0x00, 0x00, 0x00, 0x3e, 0x00, 0x00, 0x00, 0x3e,
  0x00, 0x00, 0x80, 0xbd, 0x00, 0x00, 0x80, 0x3d, 0x00, 0x00, 0x80, 0x3d,
  0x00, 0x00, 0x00, 0xbe, 0x00, 0x00, 0x80, 0x3c, 0x00, 0x00, 0x80, 0x3c,
  0x00, 0x00, 0x80, 0xbd, 0x00, 0x00, 0x00, 0x3d, 0x00, 0x00, 0x00, 0x00,
  0x00, 0x00, 0x80, 0xbd, 0x00, 0x00, 0x00, 0x00, 0x00, 0x00, 0x00, 0x3d,
  0x00, 0x00, 0x00, 0x3d, 0x00, 0x00, 0x80, 0x3d, 0x00, 0x00, 0x80, 0x3d,
  0x00, 0x00, 0x80, 0xbc, 0x00, 0x00, 0x80, 0x3d, 0x00, 0x00, 0x80, 0xbd,
  0x00, 0x00, 0x00, 0x3e, 0x00, 0x00, 0x80, 0xbd, 0x00, 0x00, 0x80, 0x3d,
  0x00, 0x00, 0x00, 0x3d, 0x00, 0x00, 0x80, 0xbc, 0x00, 0x00, 0x80, 0x3d,
  0x00, 0x00, 0x80, 0xbd, 0x00, 0x00, 0x00, 0x00, 0x00, 0x00, 0x80, 0xbd,
  0x00, 0x00, 0x80, 0x3d, 0x00, 0x00, 0x80, 0x3d, 0x00, 0x00, 0x00, 0x3e,
  0x00, 0x00, 0x00, 0x00, 0x00, 0x00, 0x00, 0x00, 0x00, 0x00, 0x80, 0x3d,
  0x00, 0x00, 0x00, 0x3d, 0x00, 0x00, 0x80, 0x3d, 0x00, 0x00, 0x80, 0xbd,
  0x00, 0x00, 0x80, 0x3d, 0x00, 0x00, 0x80, 0xbd, 0x00, 0x00, 0x00, 0xbe,
  0x00, 0x00, 0x80, 0x3c, 0x00, 0x00, 0x00, 0xbd, 0x00, 0x00, 0x80, 0xbd,
  0x00, 0x00, 0x00, 0xbd, 0x00, 0x00, 0x80, 0x3d, 0x00, 0x00, 0x80, 0xbd,
  0x00, 0x00, 0x80, 0xbd, 0x00, 0x00, 0x80, 0xbd, 0x00, 0x00, 0x00, 0x3d,
  0x00, 0x00, 0x00, 0xbe, 0x00, 0x00, 0x00, 0x3d, 0x00, 0x00, 0x00, 0x3d,
  0x00, 0x00, 0x00, 0x3d, 0x00, 0x00, 0x00, 0x00, 0x00, 0x00, 0x80, 0xbd,
  0x00, 0x00, 0x00, 0x00, 0x00, 0x00, 0x00, 0xbe, 0x00, 0x00, 0x00, 0x3d,
  0x00, 0x00, 0x00, 0x3d, 0x00, 0x00, 0x00, 0xbd, 0x00, 0x00, 0x00, 0x00,
  0x00, 0x00, 0x00, 0x3d, 0x00, 0x00, 0x00, 0xbe, 0x00, 0x00, 0x80, 0x3c,
  0x00, 0x00, 0x80, 0x3d, 0x00, 0x00, 0x00, 0x00, 0x00, 0x00, 0x00, 0xbe,
  0x00, 0x00, 0x80, 0x3c, 0x00, 0x00, 0x00, 0xbe, 0x00, 0x00, 0x80, 0x3d,
  0x00, 0x00, 0x80, 0xbd, 0x00, 0x00, 0x80, 0xbd, 0x00, 0x00, 0x00, 0xbd,
  0x00, 0x00, 0x80, 0xbc, 0x00, 0x00, 0x00, 0xbd, 0x00, 0x00, 0x00, 0x00,
  0x00, 0x00, 0x80, 0xbc, 0x00, 0x00, 0x00, 0x00, 0x00, 0x00, 0x80, 0xbd,
  0x00, 0x00, 0x00, 0x3e, 0x00, 0x00, 0x80, 0x3c, 0x00, 0x00, 0x00, 0x00,
  0x00, 0x00, 0x00, 0xbd, 0x00, 0x00, 0x80, 0xbd, 0x00, 0x00, 0x00, 0xbe,
  0x00, 0x00, 0x00, 0x3d, 0x00, 0x00, 0x80, 0xbd, 0x00, 0x00, 0x80, 0x3d,
  0x00, 0x00, 0x00, 0xbe, 0x00, 0x00, 0x80, 0xbd, 0x00, 0x00, 0x80, 0xbd,
  0x00, 0x00, 0x80, 0xbd, 0x00, 0x00, 0x80, 0xbd, 0x00, 0x00, 0x80, 0x3c,
  0x00, 0x00, 0x00, 0xbe, 0x00, 0x00, 0x80, 0xbd, 0x00, 0x00, 0x80, 0xbd,
  0x00, 0x00, 0x00, 0xbd, 0x00, 0x00, 0x00, 0x3d, 0x00, 0x00, 0x00, 0x00,
  0x00, 0x00, 0x80, 0xbd, 0x00, 0x00, 0x80, 0xbd, 0x00, 0x00, 0x00, 0x3e,
  0x00, 0x00, 0x80, 0xbd, 0x00, 0x00, 0x00, 0xbd, 0x00, 0x00, 0x80, 0xbd,
  0x00, 0x00, 0x00, 0xbe, 0x00, 0x00, 0x80, 0x3d, 0x00, 0x00, 0x80, 0x3d,
  0x00, 0x00, 0x80, 0x3d, 0x00, 0x00, 0x00, 0xbd, 0x00, 0x00, 0x80, 0x3d,
  0x00, 0x00, 0x80, 0x3d, 0x00, 0x00, 0x80, 0x3d, 0x00, 0x00, 0x00, 0xbd,
  0x00, 0x00, 0x00, 0xbe, 0x00, 0x00, 0x80, 0xbd, 0x00, 0x00, 0x00, 0x3e,
  0x00, 0x00, 0x00, 0x3d, 0x00, 0x00, 0x00, 0x3d, 0x00, 0x00, 0x80, 0x3d,
  0x00, 0x00, 0x80, 0x3d, 0x00, 0x00, 0x80, 0x3d, 0x00, 0x00, 0x80, 0x3c,
  0x00, 0x00, 0x80, 0xbd, 0x00, 0x00, 0x80, 0x3d, 0x00, 0x00, 0x00, 0xbd,
  0x00, 0x00, 0x80, 0xbd, 0x00, 0x00, 0x00, 0xbd, 0x00, 0x00, 0x00, 0xbd,
  0x00, 0x00, 0x80, 0xbd, 0x00, 0x00, 0x00, 0x00, 0x00, 0x00, 0x00, 0xbd,
  0x00, 0x00, 0x80, 0x3d, 0x00, 0x00, 0x80, 0x3d, 0x00, 0x00, 0x00, 0xbd,
  0x00, 0x00, 0x00, 0xbd, 0x00, 0x00, 0x00, 0xbe, 0x00, 0x00, 0x80, 0xbd,
  0x00, 0x00, 0x80, 0xbd, 0x00, 0x00, 0x80, 0x3d, 0x00, 0x00, 0x80, 0x3c,
  0x00, 0x00, 0x80, 0x3c, 0x00, 0x00, 0x80, 0xbd, 0x00, 0x00, 0x00, 0x3e,
  0x00, 0x00, 0x80, 0xbd, 0x00, 0x00, 0x80, 0xbc, 0x00, 0x00, 0x80, 0xbd,
  0x00, 0x00, 0x00, 0x00, 0x00, 0x00, 0x00, 0xbe, 0x00, 0x00, 0x00, 0xbd,
  0x00, 0x00, 0x00, 0xbe, 0x00, 0x00, 0x00, 0x00, 0x00, 0x00, 0x00, 0x3d,
  0x00, 0x00, 0x80, 0x3d, 0x00, 0x00, 0x00, 0x3e, 0x00, 0x00, 0x00, 0xbe,
  0x00, 0x00, 0x80, 0x3c, 0x00, 0x00, 0x00, 0xbd, 0x00, 0x00, 0x80, 0x3d,
  0x00, 0x00, 0x80, 0xbd, 0x00, 0x00, 0x00, 0xbe, 0x00, 0x00, 0x80, 0x3d,
  0x00, 0x00, 0x80, 0xbd, 0x00, 0x00, 0x80, 0x3d, 0x00, 0x00, 0x00, 0x00,
  0x00, 0x00, 0x80, 0x3c, 0x00, 0x00, 0x80, 0xbd, 0x00, 0x00, 0x00, 0xbe,
  0x00, 0x00, 0x00, 0xbd, 0x00, 0x00, 0x00, 0xbe, 0x00, 0x00, 0x00, 0x3d,
  0x00, 0x00, 0x00, 0x00, 0x00, 0x00, 0x80, 0xbd, 0x00, 0x00, 0x80, 0xbc,
  0x00, 0x00, 0x00, 0x00, 0x00, 0x00, 0x80, 0xbd, 0x00, 0x00, 0x80, 0xbd,
  0x00, 0x00, 0x80, 0x3d, 0x00, 0x00, 0x80, 0x3d, 0x00, 0x00, 0x80, 0xbd,
  0x00, 0x00, 0x80, 0xbc, 0x00, 0x00, 0x00, 0xbe, 0x00, 0x00, 0x80, 0x3c,
  0x00, 0x00, 0x00, 0x3d, 0x00, 0x00, 0x80, 0x3c, 0x00, 0x00, 0x00, 0x00,
  0x00, 0x00, 0x80, 0x3d, 0x00, 0x00, 0x80, 0x3d, 0x00, 0x00, 0x80, 0x3d,
  0x00, 0x00, 0x00, 0x00, 0x00, 0x00, 0x00, 0x3d, 0x00, 0x00, 0x80, 0xbd,
  0x00, 0x00, 0x00, 0xbd, 0x00, 0x00, 0x00, 0xbd, 0x00, 0x00, 0x00, 0x3d,
  0x00, 0x00, 0x00, 0xbe, 0x00, 0x00, 0x00, 0xbe, 0x00, 0x00, 0x80, 0xbd,
  0x00, 0x00, 0x00, 0xbd, 0x00, 0x00, 0x80, 0xbd, 0x00, 0x00, 0x00, 0xbd,
  0x00, 0x00, 0x80, 0x3d, 0x00, 0x00, 0x00, 0xbd, 0x00, 0x00, 0x80, 0xbd,
  0x00, 0x00, 0x80, 0x3d, 0x00, 0x00, 0x00, 0x3d, 0x00, 0x00, 0x00, 0x00,
  0x00, 0x00, 0x00, 0xbe, 0x00, 0x00, 0x00, 0xbe, 0x00, 0x00, 0x80, 0x3d,
  0x00, 0x00, 0x80, 0xbd, 0x00, 0x00, 0x00, 0x3d, 0x00, 0x00, 0x80, 0x3d,
  0x00, 0x00, 0x00, 0xbd, 0x00, 0x00, 0x00, 0xbd, 0x00, 0x00, 0x00, 0x00,
  0x00, 0x00, 0x80, 0x3d, 0x00, 0x00, 0x00, 0xbd, 0x00, 0x00, 0x80, 0x3d,
  0x00, 0x00, 0x80, 0xbd, 0x00, 0x00, 0x80, 0x3c, 0x00, 0x00, 0x80, 0xbd,
  0x00, 0x00, 0x00, 0xbe, 0x00, 0x00, 0x80, 0xbd, 0x00, 0x00, 0x80, 0xbd,
  0x00, 0x00, 0x80, 0x3d, 0x00, 0x00, 0x00, 0xbe, 0x00, 0x00, 0x80, 0x3c,
  0x00, 0x00, 0x00, 0x3d, 0x00, 0x00, 0x80, 0xbd, 0x00, 0x00, 0x80, 0x3d,
  0x00, 0x00, 0x00, 0x00, 0x00, 0x00, 0x80, 0xbd, 0x00, 0x00, 0x80, 0x3d,
  0x00, 0x00, 0x00, 0xbd, 0x00, 0x00, 0x80, 0x3c, 0x00, 0x00, 0x80, 0xbd,
  0x00, 0x00, 0x00, 0x00, 0x00, 0x00, 0x00, 0x00, 0x00, 0x00, 0x80, 0x3d,
  0x00, 0x00, 0x80, 0xbc, 0x00, 0x00, 0x80, 0xbd, 0x00, 0x00, 0x80, 0xbd,
  0x00, 0x00, 0x80, 0x3d, 0x00, 0x00, 0x80, 0x3c, 0x00, 0x00, 0x80, 0x3d,
  0x00, 0x00, 0x80, 0xbd, 0x00, 0x00, 0x80, 0x3c, 0x00, 0x00, 0x80, 0xbd,
  0x00, 0x00, 0x00, 0x3d, 0x00, 0x00, 0x80, 0xbd, 0x00, 0x00, 0x00, 0xbd,
  0x00, 0x00, 0x80, 0xbd, 0x00, 0x00, 0x80, 0x3d, 0x00, 0x00, 0x00, 0x00,
  0x00, 0x00, 0x80, 0xbd, 0x00, 0x00, 0x80, 0xbd, 0x00, 0x00, 0x00, 0xbd,
  0x00, 0x00, 0x00, 0xbd, 0x00, 0x00, 0x00, 0x3d, 0x00, 0x00, 0x00, 0xbd,
  0x00, 0x00, 0x00, 0xbd, 0x00, 0x00, 0x80, 0xbc, 0x00, 0x00, 0x80, 0xbd,
  0x00, 0x00, 0x80, 0x3d, 0x00, 0x00, 0x80, 0x3d, 0x00, 0x00, 0x00, 0x3e,
  0x00, 0x00, 0x00, 0xbe, 0x00, 0x00, 0x80, 0x3d, 0x00, 0x00, 0x80, 0x3d,
  0x00, 0x00, 0x00, 0xbe, 0x00, 0x00, 0x00, 0x00, 0x00, 0x00, 0x80, 0x3c,
  0x00, 0x00, 0x80, 0xbd, 0x00, 0x00, 0x00, 0x3e, 0x00, 0x00, 0x80, 0xbd,
  0x00, 0x00, 0x00, 0xbd, 0x00, 0x00, 0x00, 0xbd, 0x00, 0x00, 0x80, 0x3d,
  0x00, 0x00, 0x00, 0x3d, 0x00, 0x00, 0x00, 0x3d, 0x00, 0x00, 0x80, 0xbd,
  0x00, 0x00, 0x80, 0x3d, 0x00, 0x00, 0x00, 0xbe, 0x00, 0x00, 0x80, 0xbd,
  0x00, 0x00, 0x00, 0x3d, 0x00, 0x00, 0x80, 0xbc, 0x00, 0x00, 0x00, 0x3d,
  0x00, 0x00, 0x00, 0x00, 0x00, 0x00, 0x00, 0x00, 0x00, 0x00, 0x00, 0x00,
  0x00, 0x00, 0x00, 0x3d, 0x00, 0x00, 0x80, 0xbd, 0x00, 0x00, 0x00, 0x3e,
  0x00, 0x00, 0x00, 0x3d, 0x00, 0x00, 0x80, 0xbd, 0x00, 0x00, 0x80, 0xbc,
  0x00, 0x00, 0x80, 0x3d, 0x00, 0x00, 0x80, 0x3d, 0x00, 0x00, 0x80, 0xbd,
  0x00, 0x00, 0x80, 0x3d, 0x00, 0x00, 0x80, 0x3c, 0x00, 0x00, 0x00, 0x3d,
  0x00, 0x00, 0x80, 0xbd, 0x00, 0x00, 0x00, 0x00, 0x00, 0x00, 0x00, 0x00,
  0x00, 0x00, 0x80, 0x3d, 0x00, 0x00, 0x80, 0x3d, 0x00, 0x00, 0x00, 0x3d,
  0x00, 0x00, 0x00, 0xbd, 0x00, 0x00, 0x00, 0xbe, 0x00, 0x00, 0x00, 0x00,
  0x00, 0x00, 0x00, 0xbe, 0x00, 0x00, 0x80, 0xbd, 0x00, 0x00, 0x00, 0xbd,
  0x00, 0x00, 0x80, 0x3d, 0x00, 0x00, 0x00, 0x3e, 0x00, 0x00, 0x80, 0x3c,
  0x00, 0x00, 0x00, 0xbe, 0x00, 0x00, 0x80, 0xbd, 0x00, 0x00, 0x00, 0x3d,
  0x00, 0x00, 0x80, 0xbc, 0x00, 0x00, 0x00, 0xbd, 0x00, 0x00, 0x80, 0x3d,
  0x00, 0x00, 0x80, 0xbd, 0x00, 0x00, 0x80, 0x3d, 0x00, 0x00, 0x00, 0x3d,
  0x00, 0x00, 0x00, 0xbd, 0x00, 0x00, 0x80, 0x3d, 0x00, 0x00, 0x80, 0x3d,
  0x00, 0x00, 0x00, 0xbe, 0x00, 0x00, 0x80, 0x3d, 0x00, 0x00, 0x00, 0x3e,
  0x00, 0x00, 0x80, 0x3d, 0x00, 0x00, 0x00, 0x00, 0x00, 0x00, 0x00, 0xbe,
  0x00, 0x00, 0x80, 0xbd, 0x00, 0x00, 0x00, 0x3d, 0x00, 0x00, 0x00, 0x3e,
  0x00, 0x00, 0x00, 0xbe, 0x00, 0x00, 0x80, 0xbd, 0x00, 0x00, 0x80, 0xbc,
  0x00, 0x00, 0x00, 0x00, 0x00, 0x00, 0x80, 0x3d, 0x00, 0x00, 0x80, 0xbc,
  0x00, 0x00, 0x00, 0x3e, 0x00, 0x00, 0x00, 0xbd, 0x00, 0x00, 0x00, 0xbe,
  0x00, 0x00, 0x00, 0xbd, 0x00, 0x00, 0x00, 0xbe, 0x00, 0x00, 0x00, 0x3e,
  0x00, 0x00, 0x00, 0x3d, 0x00, 0x00, 0x00, 0x00, 0x00, 0x00, 0x80, 0x3d,
  0x00, 0x00, 0x80, 0xbd, 0x00, 0x00, 0x80, 0xbc, 0x00, 0x00, 0x80, 0xbd,
  0x00, 0x00, 0x80, 0x3d, 0x00, 0x00, 0x00, 0x3d, 0x00, 0x00, 0x80, 0x3c,
  0x00, 0x00, 0x80, 0x3d, 0x00, 0x00, 0x00, 0xbe, 0x00, 0x00, 0x00, 0xbd,
  0x00, 0x00, 0x00, 0x3d, 0x00, 0x00, 0x80, 0xbc, 0x00, 0x00, 0x80, 0x3c,
  0x00, 0x00, 0x80, 0x3d, 0x00, 0x00, 0x80, 0xbd, 0x00, 0x00, 0x00, 0xbd,
  0x00, 0x00, 0x00, 0x3d, 0x00, 0x00, 0x00, 0xbe, 0x00, 0x00, 0x80, 0x3d,
  0x00, 0x00, 0x80, 0x3d, 0x00, 0x00, 0x00, 0x00, 0x00, 0x00, 0x80, 0xbd,
  0x00, 0x00, 0x80, 0xbd, 0x00, 0x00, 0x80, 0xbd, 0x00, 0x00, 0x80, 0xbd,
  0x00, 0x00, 0x80, 0xbd, 0x00, 0x00, 0x80, 0xbd, 0x00, 0x00, 0x80, 0x3d,
  0x00, 0x00, 0x00, 0x3d, 0x00, 0x00, 0x00, 0x3d, 0x00, 0x00, 0x80, 0x3c,
  0x00, 0x00, 0x00, 0xbd, 0x00, 0x00, 0x80, 0x3d, 0x00, 0x00, 0x00, 0xbe,
  0x00, 0x00, 0x00, 0x3d, 0x00, 0x00, 0x00, 0x00, 0x00, 0x00, 0x00, 0x3e,
  0x00, 0x00, 0x00, 0xbd, 0x00, 0x00, 0x80, 0x3d, 0x00, 0x00, 0x80, 0x3d,
  0x00, 0x00, 0x80, 0xbd, 0x00, 0x00, 0x00, 0x3d, 0x00, 0x00, 0x80, 0x3d,
  0x00, 0x00, 0x00, 0xbd, 0x00, 0x00, 0x80, 0x3d, 0x00, 0x00, 0x80, 0xbd,
  0x00, 0x00, 0x00, 0xbe, 0x00, 0x00, 0x00, 0xbd, 0x00, 0x00, 0x80, 0x3d,
  0x00, 0x00, 0x00, 0xbe, 0x00, 0x00, 0x80, 0x3d, 0x00, 0x00, 0x00, 0x3d,
  0x00, 0x00, 0x80, 0xbc, 0x00, 0x00, 0x80, 0xbc, 0x00, 0x00, 0x00, 0x3d,
  0x00, 0x00, 0x00, 0x3d, 0x00, 0x00, 0x00, 0x3d, 0x00, 0x00, 0x80, 0x3d,
  0x00, 0x00, 0x80, 0x3d, 0x00, 0x00, 0x80, 0xbc, 0x00, 0x00, 0x80, 0xbd,
  0x00, 0x00, 0x00, 0xbd, 0x00, 0x00, 0x00, 0x00, 0x00, 0x00, 0x80, 0xbd,
  0x00, 0x00, 0x00, 0x3d, 0x00, 0x00, 0x00, 0x00, 0x00, 0x00, 0x00, 0xbe,
  0x00, 0x00, 0x80, 0x3c, 0x00, 0x00, 0x00, 0x3d, 0x00, 0x00, 0x80, 0xbd,
  0x00, 0x00, 0x80, 0xbd, 0x00, 0x00, 0x80, 0xbd, 0x00, 0x00, 0x00, 0x3e,
  0x00, 0x00, 0x80, 0xbd, 0x00, 0x00, 0x80, 0xbd, 0x00, 0x00, 0x00, 0xbe,
  0x00, 0x00, 0x80, 0x3c, 0x00, 0x00, 0x80, 0xbd, 0x00, 0x00, 0x80, 0x3d,
  0x00, 0x00, 0x80, 0xbd, 0x00, 0x00, 0x80, 0xbc, 0x00, 0x00, 0x80, 0x3d,
  0x00, 0x00, 0x00, 0xbd, 0x00, 0x00, 0x00, 0x3d, 0x00, 0x00, 0x80, 0xbd,
  0x00, 0x00, 0x00, 0x00, 0x00, 0x00, 0x80, 0x3d, 0x00, 0x00, 0x80, 0x3d,
  0x00, 0x00, 0x80, 0xbd, 0x00, 0x00, 0x00, 0x00, 0x00, 0x00, 0x80, 0x3c,
  0x00, 0x00, 0x80, 0x3d, 0x00, 0x00, 0x80, 0xbd, 0x00, 0x00, 0x80, 0x3d,
  0x00, 0x00, 0x00, 0x00, 0x00, 0x00, 0x00, 0x3d, 0x00, 0x00, 0x80, 0xbd,
  0x00, 0x00, 0x80, 0xbd, 0x00, 0x00, 0x80, 0xbc, 0x00, 0x00, 0x00, 0xbd,
  0x00, 0x00, 0x80, 0x3d, 0x00, 0x00, 0x00, 0x00, 0x00, 0x00, 0x80, 0x3d,
  0x00, 0x00, 0x00, 0x3d, 0x00, 0x00, 0x80, 0x3d, 0x00, 0x00, 0x00, 0xbd,
  0x00, 0x00, 0x00, 0x00, 0x00, 0x00, 0x80, 0xbc, 0x00, 0x00, 0x00, 0xbe,
  0x00, 0x00, 0x80, 0xbd, 0x00, 0x00, 0x00, 0xbe, 0x00, 0x00, 0x00, 0x3d,
  0x00, 0x00, 0x80, 0x3d, 0x00, 0x00, 0x00, 0x00, 0x00, 0x00, 0x80, 0x3d,
  0x00, 0x00, 0x00, 0xbd, 0x00, 0x00, 0x00, 0x00, 0x00, 0x00, 0x00, 0x00,
